#ifndef MODEL_H
#define MODEL_H

const unsigned char model_tflite[] = {
  0x1c, 0x00, 0x00, 0x00, 0x54, 0x46, 0x4c, 0x33, 0x14, 0x00, 0x20, 0x00, 
  0x1c, 0x00, 0x18, 0x00, 0x14, 0x00, 0x10, 0x00, 0x0c, 0x00, 0x00, 0x00, 
  0x08, 0x00, 0x04, 0x00, 0x14, 0x00, 0x00, 0x00, 0x1c, 0x00, 0x00, 0x00, 
  0x8c, 0x00, 0x00, 0x00, 0xdc, 0x00, 0x00, 0x00, 0x74, 0x1a, 0x00, 0x00, 
  0x84, 0x1a, 0x00, 0x00, 0xf0, 0x3e, 0x00, 0x00, 0x03, 0x00, 0x00, 0x00, 
  0x01, 0x00, 0x00, 0x00, 0x04, 0x00, 0x00, 0x00, 0x26, 0xce, 0xff, 0xff, 
  0x0c, 0x00, 0x00, 0x00, 0x1c, 0x00, 0x00, 0x00, 0x3c, 0x00, 0x00, 0x00, 
  0x0f, 0x00, 0x00, 0x00, 0x73, 0x65, 0x72, 0x76, 0x69, 0x6e, 0x67, 0x5f, 
  0x64, 0x65, 0x66, 0x61, 0x75, 0x6c, 0x74, 0x00, 0x01, 0x00, 0x00, 0x00, 
  0x04, 0x00, 0x00, 0x00, 0x00, 0xcf, 0xff, 0xff, 0x21, 0x00, 0x00, 0x00, 
  0x04, 0x00, 0x00, 0x00, 0x08, 0x00, 0x00, 0x00, 0x6f, 0x75, 0x74, 0x70, 
  0x75, 0x74, 0x5f, 0x30, 0x00, 0x00, 0x00, 0x00, 0x01, 0x00, 0x00, 0x00, 
  0x04, 0x00, 0x00, 0x00, 0x9a, 0xce, 0xff, 0xff, 0x04, 0x00, 0x00, 0x00, 
  0x0d, 0x00, 0x00, 0x00, 0x69, 0x6e, 0x70, 0x75, 0x74, 0x5f, 0x6c, 0x61, 
  0x79, 0x65, 0x72, 0x5f, 0x31, 0x00, 0x00, 0x00, 0x02, 0x00, 0x00, 0x00, 
  0x2c, 0x00, 0x00, 0x00, 0x04, 0x00, 0x00, 0x00, 0x4c, 0xcf, 0xff, 0xff, 
  0x4e, 0x00, 0x00, 0x00, 0x04, 0x00, 0x00, 0x00, 0x13, 0x00, 0x00, 0x00, 
  0x43, 0x4f, 0x4e, 0x56, 0x45, 0x52, 0x53, 0x49, 0x4f, 0x4e, 0x5f, 0x4d, 
  0x45, 0x54, 0x41, 0x44, 0x41, 0x54, 0x41, 0x00, 0x70, 0xcf, 0xff, 0xff, 
  0x4d, 0x00, 0x00, 0x00, 0x04, 0x00, 0x00, 0x00, 0x13, 0x00, 0x00, 0x00, 
  0x6d, 0x69, 0x6e, 0x5f, 0x72, 0x75, 0x6e, 0x74, 0x69, 0x6d, 0x65, 0x5f, 
  0x76, 0x65, 0x72, 0x73, 0x69, 0x6f, 0x6e, 0x00, 0x4f, 0x00, 0x00, 0x00, 
  0x94, 0x19, 0x00, 0x00, 0x8c, 0x19, 0x00, 0x00, 0x70, 0x19, 0x00, 0x00, 
  0x54, 0x19, 0x00, 0x00, 0x38, 0x19, 0x00, 0x00, 0xec, 0x18, 0x00, 0x00, 
  0x58, 0x15, 0x00, 0x00, 0x44, 0x15, 0x00, 0x00, 0xf8, 0x14, 0x00, 0x00, 
  0xe4, 0x14, 0x00, 0x00, 0xd0, 0x14, 0x00, 0x00, 0xbc, 0x14, 0x00, 0x00, 
  0xa0, 0x14, 0x00, 0x00, 0x8c, 0x14, 0x00, 0x00, 0x84, 0x14, 0x00, 0x00, 
  0x7c, 0x14, 0x00, 0x00, 0x64, 0x14, 0x00, 0x00, 0x5c, 0x14, 0x00, 0x00, 
  0x54, 0x14, 0x00, 0x00, 0x4c, 0x14, 0x00, 0x00, 0x44, 0x14, 0x00, 0x00, 
  0x3c, 0x14, 0x00, 0x00, 0x34, 0x14, 0x00, 0x00, 0x2c, 0x14, 0x00, 0x00, 
  0x24, 0x14, 0x00, 0x00, 0x1c, 0x14, 0x00, 0x00, 0x14, 0x14, 0x00, 0x00, 
  0x0c, 0x14, 0x00, 0x00, 0x04, 0x14, 0x00, 0x00, 0xfc, 0x13, 0x00, 0x00, 
  0xf4, 0x13, 0x00, 0x00, 0xec, 0x13, 0x00, 0x00, 0xe4, 0x13, 0x00, 0x00, 
  0xdc, 0x13, 0x00, 0x00, 0xd4, 0x13, 0x00, 0x00, 0xcc, 0x13, 0x00, 0x00, 
  0xc4, 0x13, 0x00, 0x00, 0xbc, 0x13, 0x00, 0x00, 0xb4, 0x13, 0x00, 0x00, 
  0xac, 0x13, 0x00, 0x00, 0xa4, 0x13, 0x00, 0x00, 0x9c, 0x13, 0x00, 0x00, 
  0x94, 0x13, 0x00, 0x00, 0x8c, 0x13, 0x00, 0x00, 0x84, 0x13, 0x00, 0x00, 
  0x7c, 0x13, 0x00, 0x00, 0x74, 0x13, 0x00, 0x00, 0x6c, 0x13, 0x00, 0x00, 
  0x64, 0x13, 0x00, 0x00, 0x5c, 0x13, 0x00, 0x00, 0x54, 0x13, 0x00, 0x00, 
  0x4c, 0x13, 0x00, 0x00, 0x44, 0x13, 0x00, 0x00, 0x64, 0x10, 0x00, 0x00, 
  0x44, 0x02, 0x00, 0x00, 0x44, 0x01, 0x00, 0x00, 0x3c, 0x01, 0x00, 0x00, 
  0x34, 0x01, 0x00, 0x00, 0x2c, 0x01, 0x00, 0x00, 0x24, 0x01, 0x00, 0x00, 
  0x1c, 0x01, 0x00, 0x00, 0x14, 0x01, 0x00, 0x00, 0x0c, 0x01, 0x00, 0x00, 
  0x04, 0x01, 0x00, 0x00, 0xfc, 0x00, 0x00, 0x00, 0xf4, 0x00, 0x00, 0x00, 
  0xec, 0x00, 0x00, 0x00, 0xe4, 0x00, 0x00, 0x00, 0xdc, 0x00, 0x00, 0x00, 
  0xd4, 0x00, 0x00, 0x00, 0xcc, 0x00, 0x00, 0x00, 0xc4, 0x00, 0x00, 0x00, 
  0xbc, 0x00, 0x00, 0x00, 0xb4, 0x00, 0x00, 0x00, 0xac, 0x00, 0x00, 0x00, 
  0xa4, 0x00, 0x00, 0x00, 0x9c, 0x00, 0x00, 0x00, 0x7c, 0x00, 0x00, 0x00, 
  0x04, 0x00, 0x00, 0x00, 0x4a, 0xd0, 0xff, 0xff, 0x04, 0x00, 0x00, 0x00, 
  0x68, 0x00, 0x00, 0x00, 0x10, 0x00, 0x00, 0x00, 0x00, 0x00, 0x00, 0x00, 
  0x08, 0x00, 0x0e, 0x00, 0x08, 0x00, 0x04, 0x00, 0x08, 0x00, 0x00, 0x00, 
  0x14, 0x00, 0x00, 0x00, 0x2c, 0x00, 0x00, 0x00, 0x00, 0x00, 0x0a, 0x00, 
  0x0c, 0x00, 0x08, 0x00, 0x00, 0x00, 0x07, 0x00, 0x0a, 0x00, 0x00, 0x00, 
  0x00, 0x00, 0x00, 0x01, 0x04, 0x00, 0x00, 0x00, 0x00, 0x00, 0x00, 0x00, 
  0x0c, 0x00, 0x18, 0x00, 0x14, 0x00, 0x10, 0x00, 0x0c, 0x00, 0x04, 0x00, 
  0x0c, 0x00, 0x00, 0x00, 0x23, 0xe8, 0x0e, 0x32, 0xcd, 0x4b, 0x6c, 0x13, 
  0x02, 0x00, 0x00, 0x00, 0x02, 0x00, 0x00, 0x00, 0x04, 0x00, 0x00, 0x00, 
  0x06, 0x00, 0x00, 0x00, 0x32, 0x2e, 0x31, 0x37, 0x2e, 0x30, 0x00, 0x00, 
  0xbe, 0xd0, 0xff, 0xff, 0x04, 0x00, 0x00, 0x00, 0x10, 0x00, 0x00, 0x00, 
  0x31, 0x2e, 0x31, 0x35, 0x2e, 0x30, 0x00, 0x00, 0x00, 0x00, 0x00, 0x00, 
  0x00, 0x00, 0x00, 0x00, 0x08, 0xc3, 0xff, 0xff, 0x0c, 0xc3, 0xff, 0xff, 
  0x10, 0xc3, 0xff, 0xff, 0x14, 0xc3, 0xff, 0xff, 0x18, 0xc3, 0xff, 0xff, 
  0x1c, 0xc3, 0xff, 0xff, 0x20, 0xc3, 0xff, 0xff, 0x24, 0xc3, 0xff, 0xff, 
  0x28, 0xc3, 0xff, 0xff, 0x2c, 0xc3, 0xff, 0xff, 0x30, 0xc3, 0xff, 0xff, 
  0x34, 0xc3, 0xff, 0xff, 0x38, 0xc3, 0xff, 0xff, 0x3c, 0xc3, 0xff, 0xff, 
  0x40, 0xc3, 0xff, 0xff, 0x44, 0xc3, 0xff, 0xff, 0x48, 0xc3, 0xff, 0xff, 
  0x4c, 0xc3, 0xff, 0xff, 0x50, 0xc3, 0xff, 0xff, 0x54, 0xc3, 0xff, 0xff, 
  0x58, 0xc3, 0xff, 0xff, 0x2e, 0xd1, 0xff, 0xff, 0x04, 0x00, 0x00, 0x00, 
  0xf0, 0x00, 0x00, 0x00, 0xdb, 0xaa, 0x48, 0x3f, 0x00, 0x00, 0x00, 0x00, 
  0xd8, 0xb1, 0x60, 0x2e, 0x64, 0x9d, 0xfa, 0x3d, 0x8b, 0xf6, 0xc4, 0x3a, 
  0x00, 0x00, 0x00, 0x00, 0xcf, 0xe7, 0x10, 0xbf, 0x3a, 0x74, 0x1e, 0xbf, 
  0x00, 0x00, 0x00, 0x00, 0x00, 0x00, 0x00, 0x00, 0x00, 0x00, 0x00, 0x00, 
  0x00, 0x00, 0x00, 0x00, 0x00, 0x00, 0x00, 0x00, 0x00, 0x00, 0x00, 0x00, 
  0x55, 0x46, 0x60, 0x3f, 0xfa, 0x7f, 0x94, 0x3f, 0x00, 0x00, 0x80, 0x3f, 
  0x00, 0x00, 0x80, 0x3f, 0x84, 0xd0, 0x7f, 0x3f, 0xbd, 0x81, 0x89, 0x3f, 
  0x00, 0x00, 0x80, 0x3f, 0x25, 0x40, 0xb5, 0x3f, 0x5f, 0xff, 0x2d, 0x3f, 
  0x00, 0x00, 0x80, 0x3f, 0x00, 0x00, 0x80, 0x3f, 0x00, 0x00, 0x80, 0x3f, 
  0x00, 0x00, 0x80, 0x3f, 0x00, 0x00, 0x80, 0x3f, 0x00, 0x00, 0x80, 0x3f, 
  0x1b, 0xa1, 0xd5, 0x3f, 0xd1, 0x25, 0xca, 0x3f, 0x00, 0x00, 0x00, 0x00, 
  0x11, 0xb6, 0x33, 0x2d, 0x62, 0x81, 0x2a, 0x3e, 0xf2, 0xea, 0xd5, 0x3f, 
  0x00, 0x00, 0x00, 0x00, 0xdd, 0xc4, 0x71, 0x3e, 0x64, 0x57, 0x29, 0xbf, 
  0x00, 0x00, 0x00, 0x00, 0x00, 0x00, 0x00, 0x00, 0x00, 0x00, 0x00, 0x00, 
  0x00, 0x00, 0x00, 0x00, 0x00, 0x00, 0x00, 0x00, 0x00, 0x00, 0x00, 0x00, 
  0x0b, 0xb8, 0xd9, 0x3f, 0x9e, 0xb4, 0x1c, 0xbf, 0x00, 0x00, 0x00, 0x00, 
  0xdc, 0xb1, 0x60, 0x2e, 0x45, 0x49, 0x04, 0x3e, 0x49, 0xd5, 0x4d, 0x3f, 
  0x00, 0x00, 0x00, 0x00, 0x21, 0xf5, 0x0a, 0xbf, 0x86, 0xcd, 0x09, 0xbf, 
  0x00, 0x00, 0x00, 0x00, 0x00, 0x00, 0x00, 0x00, 0x00, 0x00, 0x00, 0x00, 
  0x00, 0x00, 0x00, 0x00, 0x00, 0x00, 0x00, 0x00, 0x00, 0x00, 0x00, 0x00, 
  0xaf, 0x13, 0x94, 0x3e, 0x2a, 0xd2, 0xff, 0xff, 0x04, 0x00, 0x00, 0x00, 
  0x10, 0x0e, 0x00, 0x00, 0xd9, 0x6d, 0x39, 0xbf, 0x11, 0xb5, 0x97, 0x3d, 
  0x88, 0x2a, 0x30, 0x3e, 0x0a, 0xf0, 0xb6, 0x3e, 0xe1, 0xca, 0x6b, 0xbd, 
  0x78, 0x12, 0x46, 0xbe, 0x52, 0x15, 0x97, 0xbf, 0x29, 0x3b, 0xf5, 0xbd, 
  0xe0, 0x26, 0x04, 0xbe, 0x56, 0x0d, 0x93, 0xbe, 0x0f, 0x9b, 0x8e, 0x3d, 
  0x6f, 0x2a, 0x83, 0x3b, 0x97, 0x83, 0x62, 0x3d, 0x75, 0x22, 0xb8, 0xbd, 
  0x0c, 0xb6, 0x86, 0xbd, 0x38, 0x46, 0xdf, 0xbd, 0xa8, 0x44, 0x00, 0xbe, 
  0x64, 0x81, 0x13, 0xbd, 0x0f, 0x01, 0x19, 0x3d, 0x81, 0x4a, 0x07, 0xbe, 
  0x4e, 0x03, 0x06, 0xbe, 0xc9, 0x08, 0xb2, 0x3d, 0x38, 0x65, 0x77, 0x3b, 
  0x70, 0x19, 0x3a, 0x3c, 0xf0, 0xbe, 0x1b, 0x3e, 0xd2, 0x67, 0x01, 0xbe, 
  0x25, 0xc4, 0x5f, 0x3d, 0xe2, 0x24, 0x8e, 0xbd, 0x14, 0xef, 0xb7, 0xbd, 
  0x55, 0x96, 0x1a, 0xbe, 0xba, 0xc5, 0x10, 0x3d, 0x1c, 0x15, 0x96, 0x3d, 
  0x72, 0x55, 0xc7, 0xbd, 0x7c, 0x8d, 0x35, 0x3e, 0x7c, 0xad, 0xde, 0xbd, 
  0xcb, 0x34, 0x4c, 0x3d, 0xb8, 0xd6, 0x9a, 0x3d, 0xdc, 0x63, 0x8a, 0xbe, 
  0x8a, 0xd0, 0x41, 0xbe, 0xc0, 0x94, 0xd0, 0xb9, 0x19, 0x1e, 0xce, 0x3d, 
  0x24, 0xac, 0x8e, 0x3d, 0xd2, 0x47, 0xae, 0x3c, 0x3d, 0x5d, 0xf7, 0x3d, 
  0x62, 0x2d, 0x11, 0xbc, 0x3d, 0x0d, 0x7d, 0xbe, 0x94, 0x80, 0xba, 0x3d, 
  0x25, 0x7b, 0x21, 0x3e, 0x48, 0x81, 0xf7, 0xbd, 0xcf, 0x01, 0x96, 0xbd, 
  0xfd, 0x4f, 0x29, 0xbe, 0xf9, 0xb3, 0x35, 0xbf, 0x0e, 0xa7, 0x4a, 0xbe, 
  0x94, 0x9a, 0x77, 0xbe, 0x0a, 0xd5, 0x8d, 0xbd, 0xdc, 0xbf, 0xa2, 0xbe, 
  0x64, 0x59, 0xcc, 0xbd, 0x33, 0xf1, 0xca, 0xbd, 0xfb, 0xb1, 0x18, 0x3d, 
  0x50, 0x7c, 0x79, 0xbe, 0x86, 0x2a, 0x20, 0x3d, 0x7e, 0x5a, 0xd4, 0xbd, 
  0x27, 0x93, 0x03, 0xbe, 0xf2, 0xed, 0x1e, 0x3e, 0x74, 0xf2, 0xc7, 0xbc, 
  0x38, 0x33, 0x30, 0x3c, 0x99, 0x36, 0x45, 0xbe, 0xec, 0xca, 0x26, 0xbd, 
  0x80, 0xb0, 0xbb, 0xbe, 0xa7, 0x48, 0xf7, 0x3c, 0x8f, 0x75, 0x8e, 0x3c, 
  0xfb, 0xaf, 0x31, 0x3e, 0x6a, 0xc9, 0x78, 0xbc, 0x0e, 0xb1, 0x03, 0x3d, 
  0x64, 0x09, 0xd7, 0xbd, 0x0e, 0x32, 0x5a, 0xbe, 0x44, 0xb4, 0x48, 0x3e, 
  0x8a, 0x1b, 0xbd, 0x3c, 0x93, 0xb0, 0x87, 0x3e, 0x3a, 0xf7, 0x13, 0x3e, 
  0x00, 0x0f, 0xd4, 0xbc, 0xd0, 0xdb, 0x83, 0xbb, 0xaf, 0x1c, 0xb3, 0x3d, 
  0x85, 0xa5, 0x61, 0x3c, 0x6e, 0xa4, 0x9b, 0xbc, 0x5b, 0xd0, 0x5f, 0x3e, 
  0xf9, 0x23, 0xf3, 0x3d, 0x38, 0xf9, 0xb6, 0xbd, 0x36, 0x1e, 0x42, 0x3d, 
  0x3e, 0x18, 0xfb, 0x3c, 0xb0, 0xfa, 0xfc, 0x3e, 0xfc, 0x9b, 0x40, 0x3e, 
  0xb5, 0x9b, 0x16, 0xbd, 0x9a, 0xc0, 0x39, 0xbe, 0x81, 0x91, 0x54, 0xbf, 
  0x1c, 0x4f, 0x5e, 0xbd, 0x3c, 0x83, 0x46, 0xbf, 0x8b, 0xcf, 0x35, 0x40, 
  0x6f, 0x18, 0xf7, 0xbd, 0x0c, 0xd8, 0x02, 0x3e, 0xf6, 0x97, 0xfe, 0xbd, 
  0xef, 0xa0, 0xf5, 0xbd, 0xfb, 0x91, 0xee, 0x3c, 0x33, 0x18, 0x82, 0x3d, 
  0x75, 0xab, 0x8a, 0xbf, 0x02, 0x42, 0x86, 0xbf, 0xee, 0x58, 0x5f, 0xbd, 
  0xac, 0xb8, 0xaf, 0xbd, 0xde, 0x7a, 0x4d, 0xbe, 0x3f, 0xb1, 0xd2, 0xbf, 
  0xac, 0xc6, 0x58, 0xbd, 0x5c, 0x41, 0x3a, 0x3e, 0x47, 0xff, 0x20, 0xbe, 
  0xb7, 0x8d, 0xa0, 0xbe, 0xb8, 0xad, 0x15, 0x3d, 0xed, 0xc2, 0x33, 0x3d, 
  0x14, 0x05, 0x0f, 0xbe, 0x86, 0x73, 0xec, 0x3d, 0x94, 0x83, 0xe6, 0x3d, 
  0xbf, 0x05, 0x62, 0xbf, 0xab, 0x32, 0xdd, 0xbd, 0xac, 0x86, 0x1d, 0xbd, 
  0x3c, 0x9e, 0xe0, 0xbd, 0xaa, 0x7e, 0xe1, 0x3d, 0x8c, 0x5b, 0x54, 0xbe, 
  0xfb, 0x9b, 0xdf, 0xbc, 0x9c, 0x0e, 0xb9, 0x3e, 0x23, 0x2c, 0x3a, 0x3d, 
  0x22, 0x2a, 0xd3, 0xbc, 0xb4, 0x66, 0xa2, 0x3d, 0x05, 0x1e, 0x7a, 0x3c, 
  0xaa, 0x74, 0x92, 0xbb, 0x84, 0x51, 0x9d, 0xbe, 0x4e, 0x9f, 0x5a, 0xbd, 
  0x54, 0xcc, 0xba, 0xbd, 0xa3, 0x7a, 0xf2, 0x3d, 0x55, 0xaf, 0x17, 0xbe, 
  0x4f, 0x63, 0x3a, 0x3d, 0x3d, 0x61, 0x28, 0xbd, 0x09, 0x91, 0xb6, 0x3d, 
  0xb4, 0x8a, 0xf0, 0xbd, 0x31, 0x67, 0xcf, 0x3d, 0xa4, 0xd9, 0x08, 0xbe, 
  0xfb, 0xf7, 0xbc, 0x3d, 0x04, 0x59, 0xbc, 0xbd, 0xec, 0x24, 0x96, 0xbe, 
  0xb4, 0xf3, 0x19, 0xbc, 0x0d, 0xe4, 0x65, 0xbe, 0xac, 0x9e, 0x40, 0x3e, 
  0xb6, 0x28, 0x10, 0x3e, 0x10, 0x1b, 0xbc, 0xbc, 0xbb, 0x00, 0x3d, 0xbc, 
  0xec, 0x2b, 0xf3, 0xbc, 0xaa, 0x71, 0x85, 0xbe, 0x92, 0x82, 0x91, 0x3d, 
  0xa0, 0xaa, 0x56, 0xbe, 0xb0, 0xf8, 0x67, 0xbe, 0xf9, 0x48, 0x74, 0xbc, 
  0x0a, 0xa4, 0xbe, 0xbc, 0x99, 0x22, 0x49, 0x3e, 0x4d, 0xde, 0x73, 0x3e, 
  0x96, 0x32, 0xe1, 0x3d, 0xf9, 0x8b, 0xce, 0x3d, 0x3d, 0x14, 0xa4, 0x3c, 
  0x00, 0xef, 0x42, 0xbd, 0xd2, 0x29, 0x54, 0x3d, 0x3e, 0x7c, 0x0c, 0x3e, 
  0x8a, 0x2b, 0x0a, 0xbe, 0xfc, 0xa5, 0x1b, 0xbe, 0x81, 0xab, 0x22, 0x3d, 
  0xd3, 0x22, 0xa7, 0x3d, 0xc5, 0xd2, 0x01, 0x3c, 0xd1, 0xa6, 0x52, 0x3d, 
  0xd4, 0xbc, 0xcf, 0xbd, 0xac, 0x7f, 0xb7, 0xbd, 0x1c, 0x46, 0xa3, 0xbd, 
  0xfa, 0x28, 0x2f, 0x3e, 0xe8, 0xce, 0xb4, 0x3b, 0x99, 0x7c, 0xa2, 0xbd, 
  0x18, 0x16, 0xfb, 0x3c, 0xd2, 0x16, 0x0d, 0x3e, 0xe3, 0x5b, 0xd4, 0x3d, 
  0x29, 0xec, 0x12, 0xbd, 0x70, 0xd0, 0x60, 0xbc, 0x0b, 0x33, 0x75, 0x3e, 
  0x12, 0xc3, 0x09, 0x3e, 0x50, 0x76, 0x8a, 0x3c, 0x62, 0xfd, 0x3d, 0x3e, 
  0x27, 0x30, 0x12, 0x3e, 0x16, 0x05, 0x29, 0xbd, 0xd7, 0x9f, 0xfe, 0x3c, 
  0xf0, 0x38, 0x9d, 0x3c, 0x2f, 0xe7, 0x7f, 0xbd, 0x8d, 0xfd, 0x75, 0xbd, 
  0x00, 0x9f, 0xdb, 0xb8, 0xa9, 0xa8, 0x8c, 0xbd, 0xe8, 0xa5, 0xba, 0xbd, 
  0x99, 0x8b, 0x3a, 0x3d, 0xa7, 0x01, 0x30, 0xbe, 0x36, 0x93, 0xf6, 0xbd, 
  0xdd, 0xb9, 0x39, 0x3d, 0x98, 0xf5, 0xd6, 0x3d, 0x11, 0x4c, 0xd2, 0x3d, 
  0xe0, 0x3c, 0xa4, 0xbd, 0x3f, 0xc1, 0x73, 0x3d, 0xab, 0xeb, 0x06, 0x3e, 
  0x7d, 0xa8, 0xd1, 0xbb, 0x4a, 0x2a, 0x74, 0x3e, 0xcc, 0x02, 0x3e, 0x3e, 
  0xa0, 0x04, 0x1c, 0x3e, 0xe9, 0x0e, 0xc8, 0x3d, 0xa2, 0x67, 0x08, 0xbd, 
  0xc7, 0x52, 0x84, 0xbc, 0x2a, 0xde, 0xba, 0x3e, 0x0a, 0x84, 0x45, 0x3e, 
  0xc7, 0x93, 0x97, 0xbd, 0x9d, 0x68, 0x58, 0xbe, 0xbb, 0xb6, 0xa6, 0x3c, 
  0x7f, 0x1e, 0xbb, 0x3c, 0xfb, 0x45, 0xe1, 0x3d, 0x37, 0xfc, 0xec, 0x3d, 
  0x34, 0xdc, 0xee, 0xbd, 0x60, 0x95, 0x7e, 0x3d, 0xa1, 0x96, 0xda, 0xbd, 
  0x13, 0xe1, 0x83, 0x3e, 0x06, 0x6b, 0x88, 0xbc, 0x55, 0x3a, 0x08, 0xbe, 
  0x79, 0x32, 0x44, 0x3e, 0x8f, 0xff, 0xb1, 0x3d, 0xdb, 0x12, 0x04, 0xbe, 
  0x76, 0x55, 0x3d, 0xbd, 0x72, 0x93, 0x06, 0xbe, 0x23, 0x43, 0xb7, 0x3e, 
  0xed, 0x8f, 0xd4, 0x3d, 0xec, 0x22, 0x23, 0x3d, 0x42, 0x7e, 0x0d, 0x3e, 
  0x42, 0xa6, 0xfb, 0xbd, 0x96, 0xab, 0x82, 0xbd, 0xdd, 0x52, 0x33, 0xbe, 
  0x98, 0x0e, 0x38, 0xbd, 0x3d, 0xfb, 0x08, 0x3e, 0x2d, 0x0e, 0xde, 0x3d, 
  0x86, 0x99, 0x21, 0x3e, 0x3b, 0x6f, 0x15, 0x3e, 0xe3, 0x58, 0xe8, 0x3d, 
  0x12, 0x5a, 0x3e, 0x3c, 0x02, 0xfd, 0xc1, 0x3d, 0x9f, 0xb3, 0x52, 0xbe, 
  0x79, 0x4d, 0x95, 0x3d, 0x56, 0x97, 0x0b, 0x3e, 0x5b, 0xf4, 0x5c, 0x3e, 
  0x79, 0x14, 0xdb, 0x3d, 0x61, 0x59, 0x70, 0x3e, 0xdb, 0x90, 0xee, 0x3d, 
  0x4a, 0x0b, 0x98, 0xbc, 0x5b, 0xac, 0x14, 0xbc, 0x88, 0x98, 0x0a, 0xbd, 
  0x25, 0x1f, 0x3e, 0x3e, 0xc6, 0x10, 0x42, 0x3c, 0x27, 0x17, 0x14, 0xbe, 
  0x94, 0xc0, 0x89, 0x3e, 0x3a, 0xe8, 0x92, 0xbe, 0x47, 0x6d, 0x51, 0x3e, 
  0xb9, 0xdb, 0x3b, 0x3e, 0x9e, 0xf7, 0x21, 0x3d, 0xac, 0x0e, 0x87, 0xbc, 
  0x7f, 0x94, 0x82, 0xbe, 0x58, 0xb2, 0xd3, 0x3d, 0x46, 0x3c, 0xcf, 0xbd, 
  0xae, 0xd9, 0x39, 0xbd, 0x3a, 0x1f, 0x4a, 0xbe, 0xb0, 0xda, 0x86, 0xbc, 
  0x6e, 0xf3, 0xa1, 0xbd, 0xf5, 0xdb, 0x6e, 0xbd, 0xf6, 0x45, 0x9f, 0xbd, 
  0x54, 0x69, 0x0e, 0x3e, 0x83, 0x84, 0x78, 0x3d, 0xf0, 0xce, 0x81, 0xbc, 
  0x6e, 0x2a, 0xb7, 0x3d, 0x94, 0x90, 0x67, 0xbe, 0xce, 0xaa, 0x11, 0x3d, 
  0x12, 0x67, 0x5a, 0xbd, 0x2e, 0xcd, 0x0e, 0x3d, 0x06, 0x05, 0x56, 0x3d, 
  0x5f, 0xba, 0xc3, 0xbe, 0x08, 0xfa, 0xe8, 0x3d, 0xcb, 0xb0, 0x0d, 0x3e, 
  0x3f, 0xc2, 0x37, 0xbe, 0x51, 0x11, 0x00, 0xbe, 0x5b, 0xca, 0x6b, 0x3e, 
  0x5f, 0xf1, 0x2c, 0xbe, 0xd2, 0x8f, 0x8b, 0x3e, 0xee, 0x1c, 0x7a, 0x3e, 
  0x42, 0xbd, 0x50, 0x3e, 0xc9, 0xdd, 0x1b, 0x3d, 0xa7, 0xb0, 0x87, 0xbc, 
  0xc6, 0x43, 0xee, 0x3d, 0x4b, 0xc2, 0x05, 0x3e, 0xf0, 0x07, 0xb2, 0xbe, 
  0xa7, 0x21, 0x97, 0x3c, 0xe9, 0x65, 0xec, 0xbd, 0x33, 0xc8, 0x94, 0x3d, 
  0x0d, 0xb7, 0x85, 0xbc, 0x66, 0x1c, 0x14, 0x3d, 0x61, 0x65, 0x20, 0xbe, 
  0x02, 0x59, 0xb6, 0x3c, 0xd4, 0x47, 0xcb, 0xbd, 0x87, 0xdd, 0x95, 0xbd, 
  0x26, 0x60, 0xf8, 0xbb, 0xd0, 0x14, 0x93, 0xbb, 0x0c, 0x84, 0x00, 0x3b, 
  0xa3, 0x68, 0x5d, 0x3e, 0x7f, 0xa3, 0x09, 0x3d, 0x12, 0x3a, 0x02, 0x3e, 
  0x15, 0xfe, 0xd3, 0x3d, 0x72, 0xa3, 0xa9, 0x3f, 0xe0, 0x5c, 0x37, 0x3e, 
  0xc9, 0xe4, 0xec, 0x3c, 0xec, 0xc5, 0xdf, 0x3e, 0x02, 0x21, 0x41, 0x3f, 
  0x36, 0x2a, 0xc1, 0x3c, 0x7c, 0x38, 0xec, 0x3e, 0xe8, 0x40, 0x2d, 0xbf, 
  0x8b, 0x3c, 0x72, 0xbc, 0xca, 0x4b, 0x8c, 0x3b, 0x02, 0x75, 0x45, 0xbd, 
  0x75, 0x29, 0x14, 0x3d, 0xa0, 0x29, 0x09, 0x3e, 0x6e, 0x41, 0xee, 0xbc, 
  0xec, 0xd9, 0x8e, 0x3f, 0x0d, 0xc0, 0x3f, 0xc0, 0xc5, 0x35, 0xcc, 0xbd, 
  0x4a, 0x64, 0x57, 0x3c, 0xd5, 0x14, 0xf9, 0xbd, 0xcc, 0x1e, 0x6a, 0xbf, 
  0x78, 0x87, 0x00, 0x3e, 0x1c, 0x21, 0xbe, 0x3e, 0x16, 0x58, 0x40, 0xbe, 
  0xb2, 0xf9, 0xa2, 0x3d, 0x8d, 0x56, 0x6b, 0x3d, 0x56, 0x08, 0x11, 0xbe, 
  0x74, 0x92, 0x8b, 0x3c, 0xb8, 0xfa, 0x7c, 0xbe, 0xb8, 0xfc, 0x66, 0x3d, 
  0xd9, 0xb1, 0xcd, 0x3e, 0x5d, 0x3e, 0x5e, 0xbe, 0x8c, 0x6a, 0x1d, 0xbc, 
  0xb8, 0x95, 0x8c, 0xbe, 0x69, 0x42, 0xf5, 0x3d, 0x6a, 0xa5, 0x4d, 0xbd, 
  0xbb, 0x9b, 0xa6, 0xbd, 0x78, 0x19, 0x70, 0x3d, 0xaa, 0x57, 0x2e, 0x3d, 
  0x89, 0x2e, 0x6b, 0x3e, 0xbb, 0x93, 0x07, 0x3d, 0x23, 0x96, 0x0c, 0xbd, 
  0x06, 0x5b, 0x79, 0xbd, 0x9d, 0x4f, 0xa7, 0x3d, 0x9b, 0xdf, 0x9b, 0xbd, 
  0x9e, 0x66, 0xaa, 0x3d, 0xf3, 0x57, 0xe7, 0x3d, 0x83, 0xe2, 0x1a, 0xbd, 
  0x42, 0xde, 0xb7, 0x3c, 0xd8, 0x6f, 0x02, 0xbe, 0xc2, 0x8d, 0xa8, 0xbc, 
  0x9a, 0x03, 0x28, 0x3d, 0xd9, 0x6f, 0xcd, 0x3d, 0x96, 0x00, 0xcc, 0xbd, 
  0xee, 0x1f, 0xd6, 0xbc, 0xc1, 0x72, 0x89, 0x3e, 0x26, 0x44, 0x0f, 0xbe, 
  0xcf, 0x2f, 0x3b, 0x3d, 0xb8, 0x76, 0x02, 0x3e, 0xc6, 0x8a, 0xbd, 0x3d, 
  0x03, 0x37, 0x94, 0xbd, 0x6d, 0xa7, 0xb8, 0xbd, 0x0c, 0x3e, 0x88, 0x3d, 
  0x5c, 0xf3, 0xa0, 0xbd, 0x3a, 0x94, 0xca, 0x3d, 0xd6, 0x23, 0x4e, 0x3e, 
  0x01, 0x68, 0x49, 0x3d, 0x1a, 0x44, 0xd8, 0x3c, 0x3e, 0xff, 0x5a, 0x3e, 
  0x0e, 0xf5, 0x9a, 0x3c, 0x7a, 0xb4, 0x4d, 0x3d, 0x44, 0x34, 0xeb, 0xbd, 
  0xa9, 0xab, 0x28, 0xbd, 0xc4, 0xd6, 0xc1, 0x3c, 0x63, 0xf6, 0x6c, 0x3d, 
  0x58, 0xe2, 0x4d, 0xbe, 0x83, 0x72, 0xbe, 0xbd, 0xf0, 0xe0, 0xb1, 0x3d, 
  0x42, 0xd6, 0xcc, 0x3e, 0xc7, 0x63, 0x75, 0x3d, 0xd6, 0x4c, 0x9e, 0x3c, 
  0x5a, 0xb5, 0xd5, 0xbd, 0xf0, 0x8f, 0x0c, 0x3d, 0x52, 0xf4, 0x9a, 0x3d, 
  0xf8, 0x56, 0x95, 0x3d, 0xad, 0xef, 0xd8, 0x3d, 0x39, 0x92, 0x8e, 0xbd, 
  0x93, 0xf6, 0x41, 0xbe, 0xf1, 0x7b, 0xfd, 0x3d, 0x2c, 0x20, 0x05, 0x3e, 
  0xb7, 0xd4, 0xcf, 0xbd, 0x5e, 0xe1, 0x38, 0x3e, 0x98, 0x67, 0x6a, 0xbd, 
  0x54, 0xfd, 0x5d, 0xbd, 0xef, 0x70, 0x0a, 0x3b, 0xb9, 0x8d, 0x35, 0xbd, 
  0x8e, 0x53, 0xa5, 0xbd, 0x68, 0x25, 0x32, 0x3d, 0x74, 0x3c, 0xbd, 0x3c, 
  0xc0, 0xde, 0xc6, 0x39, 0x48, 0x45, 0xf8, 0xbb, 0x74, 0x63, 0xe4, 0x3d, 
  0xca, 0x4a, 0x45, 0xbe, 0x1a, 0x27, 0x5a, 0xbd, 0xf6, 0xc6, 0xdc, 0xbc, 
  0xb0, 0x6a, 0xc3, 0xbd, 0x29, 0x0c, 0xad, 0x3c, 0x77, 0xaf, 0x80, 0xbe, 
  0xdd, 0xc6, 0x10, 0x3d, 0x55, 0x0f, 0xa0, 0xbb, 0x4f, 0x03, 0x37, 0x3e, 
  0xea, 0x8c, 0x37, 0xbd, 0x8b, 0x08, 0xbe, 0x3d, 0x4f, 0x5a, 0xbd, 0xbc, 
  0x46, 0x2c, 0x2c, 0xbc, 0xe7, 0x20, 0x8c, 0xbd, 0x08, 0xcf, 0xa1, 0x3c, 
  0x03, 0xed, 0xbc, 0xbd, 0x97, 0x0a, 0x80, 0xbd, 0xa8, 0xa5, 0x9f, 0x3d, 
  0x4b, 0xa4, 0xaf, 0xbd, 0x20, 0x9d, 0x37, 0xbe, 0xbc, 0xf4, 0x38, 0x3d, 
  0xf5, 0xc0, 0x2d, 0x3e, 0x1c, 0xfa, 0x5c, 0xbe, 0x3e, 0xc1, 0x5e, 0xbf, 
  0x80, 0x7f, 0xac, 0xbd, 0xd9, 0x71, 0x9f, 0xbc, 0x8d, 0x5b, 0x77, 0x3e, 
  0x62, 0x43, 0xe6, 0xbd, 0x5e, 0x2c, 0x9d, 0x3c, 0x32, 0xd1, 0x31, 0x3e, 
  0xf7, 0x94, 0x62, 0x3e, 0x99, 0xcc, 0xbe, 0xbc, 0xf9, 0x77, 0x1a, 0xbe, 
  0x69, 0x04, 0x87, 0x3e, 0xd7, 0xd9, 0xd7, 0xbe, 0x1e, 0x84, 0x26, 0xbc, 
  0xd5, 0x58, 0x2c, 0xbe, 0xa7, 0xd3, 0x0d, 0x3d, 0xe8, 0x22, 0x14, 0xbe, 
  0x03, 0xf5, 0x96, 0x3e, 0xa5, 0x51, 0x97, 0xbe, 0x50, 0xcb, 0x49, 0x3f, 
  0x61, 0x03, 0x2c, 0xbe, 0xa4, 0x26, 0xfa, 0x3d, 0xd2, 0x56, 0x56, 0xbd, 
  0x7b, 0x9b, 0x1a, 0x3e, 0xc8, 0x0f, 0xa1, 0x3e, 0xb4, 0xfc, 0x93, 0xbd, 
  0x0d, 0xfc, 0x3b, 0x3f, 0xa1, 0xac, 0x3c, 0x3e, 0x79, 0x76, 0x22, 0xbd, 
  0xce, 0x91, 0xa3, 0x3d, 0x00, 0x01, 0x6c, 0xbe, 0x7a, 0x3b, 0x1b, 0xbd, 
  0x4c, 0x7c, 0xb8, 0x3d, 0xc4, 0x69, 0x18, 0x3e, 0x02, 0x62, 0xa9, 0xbd, 
  0x12, 0x0c, 0x8e, 0x3d, 0x06, 0x2c, 0xae, 0x3d, 0xda, 0x37, 0xf9, 0x3c, 
  0xcc, 0x15, 0x02, 0x3e, 0x0e, 0xc7, 0xff, 0xbb, 0x46, 0xb3, 0x1e, 0x3e, 
  0xae, 0xa5, 0x9d, 0xbd, 0x90, 0x1c, 0x6b, 0xbd, 0x39, 0x1c, 0xf9, 0x3d, 
  0xfe, 0xbc, 0x06, 0xbe, 0x1b, 0xa7, 0x47, 0xbe, 0x40, 0x8a, 0x17, 0xbe, 
  0x08, 0xf8, 0x7c, 0xbe, 0x33, 0x8f, 0xa4, 0x3d, 0x58, 0x12, 0x62, 0x3e, 
  0xa3, 0xa0, 0x6d, 0xbe, 0x25, 0x4f, 0xd2, 0xbd, 0x7f, 0xa0, 0xa3, 0x3d, 
  0xd8, 0x9d, 0x9d, 0xbd, 0xb4, 0xb3, 0x2d, 0x3d, 0x88, 0x66, 0x48, 0xbc, 
  0xe0, 0x11, 0x80, 0xbd, 0x33, 0x3f, 0x0b, 0x3e, 0x17, 0x7c, 0xcb, 0x3e, 
  0x81, 0x29, 0x6c, 0xbd, 0x96, 0xc7, 0xe8, 0x3d, 0x2d, 0xd8, 0x10, 0xbe, 
  0x5c, 0xfa, 0x8b, 0xbc, 0x1d, 0x20, 0xd4, 0x3c, 0xad, 0x48, 0x32, 0x3d, 
  0x9b, 0xcf, 0x0c, 0x3e, 0x8a, 0x6b, 0xcd, 0x3d, 0xfa, 0x74, 0xee, 0xbd, 
  0xe7, 0x37, 0x79, 0xbc, 0x2f, 0x22, 0x18, 0xbd, 0xdf, 0x34, 0x3e, 0x3e, 
  0x75, 0x96, 0x23, 0xbe, 0x3f, 0xf7, 0x2d, 0x3e, 0xba, 0x0e, 0xa1, 0xbc, 
  0x86, 0x01, 0xc3, 0xbd, 0x3f, 0x1a, 0x1b, 0xbe, 0x37, 0xac, 0x00, 0x3f, 
  0x78, 0xd1, 0xda, 0xbd, 0xe9, 0x71, 0x62, 0x3f, 0xbd, 0x47, 0x84, 0x3f, 
  0xdf, 0x96, 0xce, 0x3d, 0x11, 0x2b, 0x5b, 0x3d, 0x33, 0x48, 0x66, 0x3e, 
  0x1d, 0x23, 0x9f, 0xbd, 0x14, 0x0e, 0xfd, 0xbd, 0xcb, 0xc3, 0xb0, 0x3d, 
  0x4a, 0x25, 0x04, 0x40, 0xce, 0x5d, 0xcb, 0xbd, 0xe4, 0x1b, 0x14, 0x3e, 
  0x57, 0xf1, 0x28, 0x3e, 0xc7, 0x57, 0x11, 0xbe, 0xbb, 0xc7, 0xb6, 0x3d, 
  0xc4, 0xc1, 0x5d, 0xbd, 0x9b, 0x41, 0x40, 0x3e, 0x71, 0x1c, 0x69, 0x3d, 
  0xa6, 0xa3, 0xff, 0x3d, 0xaa, 0x55, 0x07, 0xbe, 0x63, 0x70, 0x2b, 0x3e, 
  0xbd, 0x46, 0xca, 0xbd, 0xe9, 0x20, 0xdb, 0xbc, 0xb8, 0x22, 0xa1, 0x3b, 
  0x36, 0x74, 0x9d, 0x3d, 0xa3, 0x3c, 0x34, 0x3d, 0xc2, 0x78, 0xc1, 0x3c, 
  0x8f, 0xad, 0x9e, 0xbd, 0x66, 0xc9, 0x35, 0x3e, 0xeb, 0x9b, 0x07, 0x3f, 
  0x0d, 0xf8, 0x2b, 0xbd, 0x00, 0x1b, 0xd9, 0xbd, 0x6c, 0x3a, 0xef, 0xbd, 
  0x3f, 0xf3, 0xb8, 0xbd, 0xb2, 0x53, 0x1b, 0xbe, 0xab, 0x12, 0x6e, 0x3e, 
  0xf8, 0xd7, 0x14, 0xbc, 0xc2, 0xc0, 0xe9, 0xbc, 0x19, 0xc8, 0x03, 0x3e, 
  0x51, 0x95, 0x9a, 0x3f, 0x02, 0x6c, 0xba, 0xbf, 0x79, 0xfc, 0xb4, 0xbd, 
  0xd8, 0x61, 0x11, 0xbe, 0xb7, 0xe0, 0x1e, 0xbf, 0x78, 0xc7, 0xcf, 0xbf, 
  0x3c, 0x02, 0x3a, 0xbe, 0x3f, 0xf1, 0x6f, 0x3e, 0x05, 0x60, 0xc8, 0xbe, 
  0xf1, 0x5a, 0x0f, 0x3e, 0x19, 0x59, 0x4d, 0x3e, 0xeb, 0x4d, 0x55, 0xbe, 
  0x52, 0x3b, 0x76, 0xbd, 0xee, 0x0c, 0xb0, 0x3d, 0x2b, 0xf6, 0xd7, 0x3d, 
  0x72, 0xa0, 0xa8, 0xbe, 0x82, 0xc8, 0xa9, 0x3c, 0x94, 0x41, 0xdc, 0xbd, 
  0x9b, 0x14, 0x79, 0xbd, 0x80, 0x41, 0x22, 0x3e, 0xf9, 0x6f, 0xcc, 0x3d, 
  0xf4, 0xbc, 0xc3, 0xbd, 0xb0, 0x70, 0xe6, 0xbd, 0x65, 0xbf, 0xaf, 0xbd, 
  0x02, 0x47, 0x1a, 0x3e, 0x40, 0xdc, 0x01, 0x3e, 0x36, 0xf5, 0xf0, 0x3c, 
  0xf6, 0x78, 0xb9, 0x3c, 0xaa, 0x95, 0xe8, 0x3c, 0x4f, 0xa5, 0x27, 0x3d, 
  0xd5, 0xbf, 0x5c, 0xbe, 0x61, 0x81, 0xa3, 0x3e, 0xce, 0xbe, 0xd1, 0x3c, 
  0x04, 0x56, 0x90, 0x3d, 0x3b, 0xc8, 0xd7, 0x3d, 0x48, 0xae, 0x67, 0xbe, 
  0x43, 0x15, 0x4f, 0xbd, 0xac, 0x3f, 0xd4, 0x3b, 0x23, 0x31, 0x0c, 0xbe, 
  0xa4, 0xf1, 0x10, 0xbe, 0x44, 0x09, 0xb2, 0x3d, 0xe3, 0xb8, 0xed, 0x3d, 
  0x34, 0xfb, 0x23, 0xbe, 0xda, 0x55, 0xab, 0xbc, 0x4d, 0xb9, 0xbf, 0x3c, 
  0x58, 0x49, 0xc6, 0xbd, 0x0f, 0xcf, 0x8c, 0xbc, 0x91, 0x10, 0xbb, 0xbd, 
  0xa8, 0xc5, 0x5b, 0x3e, 0x08, 0x14, 0x00, 0x3d, 0x89, 0x32, 0x1b, 0xbe, 
  0xb6, 0x1d, 0x82, 0xbe, 0x1a, 0x5d, 0x9c, 0x3d, 0x3f, 0x6a, 0x09, 0x3e, 
  0x66, 0xfd, 0xbb, 0xbd, 0x68, 0xda, 0x41, 0x3d, 0xea, 0x17, 0x11, 0xbe, 
  0xbd, 0xda, 0xd0, 0x3d, 0x11, 0x10, 0x2a, 0xbb, 0x25, 0x70, 0x90, 0xbd, 
  0x5f, 0x6b, 0x67, 0x3d, 0x5a, 0xce, 0x22, 0x3e, 0x30, 0x68, 0xa1, 0xbe, 
  0x18, 0xa6, 0x69, 0xbd, 0xd3, 0x85, 0x9c, 0xbd, 0x62, 0x95, 0x43, 0x3d, 
  0x98, 0xe0, 0x90, 0x3d, 0x71, 0x27, 0x1b, 0x3e, 0x6c, 0x29, 0x72, 0x3c, 
  0x2e, 0xc2, 0x15, 0x3d, 0xa2, 0x24, 0xb4, 0xbe, 0xd4, 0xbd, 0x01, 0x3e, 
  0x09, 0xcb, 0xb6, 0xbd, 0x52, 0x42, 0x1b, 0x3e, 0x11, 0x70, 0xff, 0xbc, 
  0x08, 0x55, 0xc3, 0x3d, 0x98, 0xaf, 0xe8, 0xbd, 0x6b, 0xf0, 0x04, 0x3e, 
  0x73, 0x7f, 0xe5, 0x3c, 0xc2, 0x99, 0x26, 0xbd, 0xea, 0xa6, 0xbd, 0x3c, 
  0x06, 0xdb, 0x4e, 0x3e, 0x4a, 0x21, 0xb0, 0x3d, 0xe3, 0x76, 0xa8, 0x3d, 
  0x17, 0x24, 0x09, 0x3e, 0xb4, 0xa9, 0xa0, 0x3d, 0xf0, 0x17, 0x1f, 0x3d, 
  0x51, 0xfa, 0x35, 0x3e, 0x77, 0xe3, 0x44, 0xbe, 0x18, 0xa6, 0xd6, 0x3d, 
  0xa0, 0x43, 0xf8, 0x3d, 0x08, 0x29, 0x08, 0x3d, 0x4e, 0xbe, 0x8e, 0x3d, 
  0x62, 0xc0, 0xa8, 0x3d, 0x81, 0x9b, 0x9c, 0x3d, 0xae, 0x8e, 0xce, 0xbd, 
  0xd7, 0xb0, 0x93, 0x3d, 0x74, 0x29, 0x20, 0xbd, 0xe4, 0xe7, 0xde, 0xbe, 
  0x14, 0x27, 0x5f, 0x3d, 0x66, 0xc1, 0xe9, 0xbd, 0x1f, 0xc0, 0xbb, 0xbb, 
  0x49, 0x1c, 0x51, 0x3d, 0x7f, 0xb0, 0xab, 0x3d, 0x56, 0xc0, 0x21, 0xbe, 
  0xac, 0xd3, 0xb3, 0x3d, 0x9e, 0xf5, 0x21, 0x3f, 0x6e, 0x2e, 0x1b, 0x3d, 
  0x32, 0x99, 0xb3, 0xbc, 0xa3, 0xfa, 0xda, 0xbd, 0x04, 0xd1, 0xf0, 0x3e, 
  0x04, 0x68, 0x18, 0x3e, 0xdd, 0xf3, 0xb1, 0x3e, 0x4f, 0xfd, 0x2a, 0x3f, 
  0xc8, 0xa7, 0x89, 0x3d, 0xd7, 0xfe, 0x89, 0x3d, 0x1f, 0xff, 0xdb, 0xbc, 
  0x60, 0x18, 0xb7, 0xbd, 0x26, 0x41, 0x2d, 0x3d, 0xed, 0x2d, 0x5a, 0xbe, 
  0x12, 0x98, 0x95, 0x3f, 0x99, 0xbf, 0xa8, 0x3e, 0x52, 0xfd, 0xa6, 0x3d, 
  0x97, 0xa4, 0x1f, 0xbd, 0xc4, 0x8b, 0x43, 0x3e, 0x19, 0xa3, 0x35, 0xbe, 
  0xad, 0xae, 0x75, 0xbd, 0x5e, 0x68, 0x04, 0x3f, 0x73, 0x1a, 0x21, 0x40, 
  0xf3, 0xa3, 0xa0, 0x3d, 0x58, 0x1c, 0xa9, 0xbe, 0xb3, 0xdb, 0x2a, 0xbd, 
  0xfc, 0xf6, 0x88, 0xbd, 0xa3, 0xa2, 0xeb, 0xbd, 0x1a, 0x1c, 0x14, 0xbe, 
  0xf6, 0x35, 0x44, 0x3f, 0x6e, 0x98, 0x34, 0x3e, 0xd8, 0xc2, 0xd7, 0xbd, 
  0xa5, 0x0c, 0xb8, 0x3d, 0x3c, 0x38, 0xf6, 0xbd, 0x92, 0x7f, 0x00, 0xbe, 
  0x74, 0xc6, 0xe2, 0xbd, 0x4c, 0xb4, 0x6e, 0x3c, 0x5e, 0x64, 0xd0, 0x3d, 
  0xb3, 0x1e, 0xc0, 0x3c, 0xd1, 0x0f, 0x7b, 0x3e, 0xba, 0x5b, 0x8c, 0x3c, 
  0x7a, 0x13, 0x70, 0x3e, 0x30, 0xe8, 0x6e, 0xbe, 0xf8, 0x1e, 0x3c, 0xbe, 
  0x6f, 0x9c, 0x04, 0x3e, 0xc1, 0xcb, 0xa6, 0xbd, 0xe0, 0xa4, 0xd0, 0x3d, 
  0x1b, 0x39, 0x8a, 0xbd, 0x53, 0xda, 0xb4, 0xbd, 0x1b, 0xac, 0x97, 0xbd, 
  0x15, 0xb6, 0x96, 0xbe, 0x4b, 0xf2, 0xc5, 0x3d, 0xff, 0x78, 0x86, 0xbe, 
  0xa0, 0xbe, 0x89, 0x39, 0xfa, 0xc8, 0x5b, 0x3d, 0x04, 0xdb, 0x10, 0xbe, 
  0xb6, 0x52, 0x31, 0xbe, 0xee, 0xe3, 0x1a, 0x3e, 0x0f, 0x69, 0xfc, 0xbd, 
  0x17, 0xfb, 0x0f, 0xbe, 0x2a, 0xb3, 0x89, 0xbe, 0xb7, 0xf9, 0x16, 0xbe, 
  0x27, 0x1c, 0x9c, 0x3d, 0xb4, 0xd3, 0x26, 0x3d, 0xf0, 0xc2, 0x7c, 0xbd, 
  0xf6, 0x73, 0xea, 0x3c, 0x91, 0x4c, 0xdf, 0xbc, 0x44, 0x06, 0x75, 0x3d, 
  0xa8, 0xb5, 0x32, 0xbb, 0xf3, 0xa9, 0x5e, 0x3e, 0x22, 0x03, 0x52, 0x3e, 
  0x53, 0x98, 0x75, 0xbe, 0x4d, 0x47, 0xad, 0xbd, 0x3c, 0xbd, 0xa3, 0xbd, 
  0xa5, 0x6e, 0x15, 0x3e, 0x0a, 0x81, 0x24, 0xbd, 0xf3, 0x69, 0x5d, 0x3e, 
  0xe2, 0xc3, 0x0f, 0xbb, 0x29, 0x86, 0x0c, 0x3f, 0xeb, 0x44, 0x13, 0x3f, 
  0xd6, 0x6d, 0x5a, 0xbd, 0xa7, 0xb6, 0xcd, 0x3d, 0x09, 0xb8, 0x16, 0x3e, 
  0x98, 0x13, 0x7a, 0x3d, 0x98, 0xd5, 0x14, 0x3e, 0x3a, 0xeb, 0x6d, 0x3e, 
  0xed, 0x27, 0x23, 0xbe, 0x59, 0xce, 0x0b, 0xbe, 0x61, 0x61, 0xd4, 0x3d, 
  0x5d, 0xf5, 0xbb, 0x3f, 0x02, 0x05, 0x04, 0xbd, 0x23, 0x7a, 0x5b, 0xbd, 
  0x37, 0x44, 0x62, 0xbe, 0x48, 0xa8, 0x00, 0xbb, 0x6e, 0x02, 0x67, 0x3e, 
  0x98, 0xa6, 0x49, 0xbe, 0xbc, 0x5d, 0x24, 0xbe, 0x08, 0xb6, 0x38, 0xbd, 
  0x0f, 0x56, 0x28, 0x3c, 0x88, 0xbb, 0x6f, 0xbb, 0x07, 0xc7, 0xea, 0x3d, 
  0xa8, 0x27, 0x1e, 0xbd, 0xcd, 0xb6, 0xcb, 0xbd, 0x97, 0x51, 0x8b, 0xbd, 
  0x1b, 0x50, 0x4c, 0x3d, 0x4d, 0x52, 0x2b, 0x3f, 0x27, 0x26, 0x9c, 0x3d, 
  0x39, 0xd2, 0x50, 0x3e, 0x96, 0x68, 0xbc, 0x3d, 0x7c, 0x41, 0xd6, 0x3e, 
  0xd6, 0xfb, 0xe2, 0x3d, 0x4c, 0x4d, 0x44, 0x3c, 0xa9, 0xbb, 0x1d, 0x40, 
  0xcb, 0xae, 0x3d, 0xbe, 0x30, 0x56, 0x7a, 0x3d, 0xe1, 0x6f, 0x40, 0x3d, 
  0x31, 0x15, 0x75, 0x3d, 0x4d, 0x94, 0x0a, 0xbe, 0x8e, 0x93, 0xb8, 0xbe, 
  0x4c, 0xee, 0x6d, 0x3e, 0x23, 0x90, 0x1b, 0xbf, 0x1e, 0x90, 0x20, 0x3e, 
  0x0b, 0x2b, 0x50, 0xbe, 0x5e, 0x79, 0x19, 0xbd, 0xef, 0x95, 0xaf, 0xbf, 
  0xb2, 0xcf, 0x4d, 0xbd, 0x05, 0x2e, 0x15, 0xbf, 0x64, 0x5a, 0xcc, 0x3d, 
  0x8d, 0x83, 0x58, 0xbd, 0x06, 0xc6, 0x1c, 0x3e, 0xa1, 0x57, 0x0b, 0x3e, 
  0x90, 0xcb, 0x34, 0xbe, 0xc9, 0x0b, 0xa9, 0xbd, 0x0e, 0x09, 0x20, 0xbc, 
  0x90, 0x52, 0x3a, 0xbf, 0x8c, 0x5b, 0x9c, 0xbd, 0x05, 0x4e, 0x23, 0x3e, 
  0x38, 0xdc, 0x07, 0xbc, 0x97, 0xea, 0x34, 0xbe, 0xf5, 0xa9, 0x92, 0x3e, 
  0xfc, 0x90, 0xe9, 0x3d, 0x00, 0x2e, 0x5a, 0x3d, 0x9f, 0x55, 0x8c, 0xbe, 
  0x8c, 0xdc, 0xed, 0xbd, 0xfa, 0xd1, 0x58, 0x3d, 0x21, 0xfe, 0x5e, 0xbd, 
  0x44, 0xbc, 0x65, 0x3c, 0x37, 0xae, 0x5f, 0xbe, 0x8b, 0xed, 0x89, 0xbe, 
  0xdb, 0x7c, 0x2d, 0xbe, 0x7f, 0xaa, 0x82, 0xbe, 0x66, 0xcc, 0x8e, 0xbc, 
  0x98, 0x27, 0x4a, 0x3d, 0x10, 0x88, 0xc7, 0x39, 0xde, 0x75, 0x0e, 0x3e, 
  0x0c, 0xfa, 0xc2, 0xbd, 0x19, 0x81, 0xa8, 0xbc, 0x87, 0xbd, 0x96, 0xbd, 
  0xa0, 0x61, 0x99, 0xbc, 0xd7, 0xe4, 0x9e, 0xbd, 0x75, 0x9e, 0xf3, 0xbd, 
  0x8f, 0x7b, 0x1d, 0x3d, 0xc6, 0x9b, 0x37, 0xbd, 0xf1, 0x31, 0x19, 0x3e, 
  0xbc, 0x36, 0xe7, 0x3d, 0x0b, 0x9f, 0x28, 0x3e, 0xa0, 0x51, 0x59, 0xba, 
  0xd6, 0x47, 0x3f, 0x3d, 0x17, 0xea, 0x7e, 0xbe, 0xf9, 0xe8, 0x37, 0x3d, 
  0x4a, 0x0f, 0xe6, 0x3d, 0xec, 0xe2, 0x02, 0x3e, 0x1c, 0xd8, 0xd0, 0xbd, 
  0x41, 0x09, 0x00, 0x3d, 0x8c, 0xb3, 0xba, 0x3d, 0xf4, 0x0e, 0xbe, 0xbd, 
  0xd0, 0xfc, 0x33, 0xbe, 0x6b, 0xf2, 0x40, 0x3e, 0xaa, 0xfd, 0x12, 0xbe, 
  0xf2, 0x01, 0xae, 0xbd, 0xab, 0x98, 0xd8, 0x3d, 0x60, 0x9a, 0xab, 0xbe, 
  0xb5, 0xfa, 0xaf, 0x3d, 0x3f, 0xfc, 0x1b, 0x3e, 0x89, 0xca, 0x51, 0x3e, 
  0x16, 0x96, 0x3b, 0xbd, 0x6e, 0x9e, 0x68, 0x3e, 0x68, 0x52, 0xbf, 0x3d, 
  0xeb, 0xd9, 0x17, 0xbd, 0xc1, 0xda, 0x18, 0x3e, 0x92, 0xa5, 0x78, 0x3d, 
  0x8f, 0xa8, 0x26, 0x3e, 0x27, 0xaf, 0x47, 0x3d, 0x3e, 0x63, 0x99, 0xbd, 
  0xe7, 0x62, 0xcf, 0x3d, 0x57, 0xb8, 0x93, 0x3e, 0xaa, 0xd3, 0xf3, 0xbd, 
  0x29, 0x76, 0x8e, 0xbe, 0x90, 0xcd, 0x60, 0x3d, 0x38, 0x10, 0x81, 0x3c, 
  0x75, 0xdc, 0xaa, 0xbd, 0xcb, 0x39, 0x15, 0xbe, 0x8d, 0xea, 0x20, 0x3d, 
  0x76, 0x66, 0x4d, 0x3e, 0x18, 0x39, 0xd5, 0xbc, 0xd6, 0xaa, 0x3c, 0x3c, 
  0x8b, 0x46, 0xf8, 0x3d, 0x44, 0x42, 0xb3, 0x3c, 0x36, 0xc5, 0x82, 0xbd, 
  0xe1, 0xf0, 0x8c, 0xbd, 0x81, 0x34, 0x84, 0xbd, 0xb0, 0x4b, 0x71, 0xba, 
  0x26, 0x17, 0xe5, 0xbd, 0x6b, 0x40, 0x0e, 0x3e, 0x18, 0x67, 0x29, 0x3c, 
  0x39, 0xd5, 0x61, 0x3d, 0x48, 0x8e, 0x33, 0xbc, 0xfa, 0xa9, 0x6f, 0x3c, 
  0x5e, 0xe9, 0x39, 0xbe, 0x08, 0xe0, 0x77, 0x3d, 0x51, 0xe9, 0xfe, 0xbd, 
  0x90, 0xc0, 0x68, 0xbe, 0x30, 0x6e, 0xf5, 0x3d, 0xba, 0x8c, 0x63, 0xbe, 
  0x8c, 0x06, 0x76, 0x3e, 0x45, 0x48, 0xc9, 0x3e, 0xf7, 0x06, 0xa5, 0xbd, 
  0x3b, 0xc6, 0x1d, 0xbe, 0x67, 0x36, 0x65, 0xbe, 0x6e, 0xd5, 0xb1, 0x3e, 
  0x70, 0x19, 0x91, 0x3e, 0xac, 0x7d, 0x81, 0x3d, 0x44, 0x80, 0xf9, 0x3d, 
  0x82, 0x1c, 0x52, 0xbe, 0x37, 0x1d, 0xd8, 0x3d, 0x2f, 0x43, 0xbf, 0x3c, 
  0xda, 0x8e, 0x86, 0xbe, 0x24, 0x7f, 0x8c, 0xbe, 0xdb, 0x16, 0xa1, 0x3d, 
  0x47, 0xf4, 0x33, 0x3e, 0x46, 0xe0, 0xff, 0xff, 0x04, 0x00, 0x00, 0x00, 
  0xd0, 0x02, 0x00, 0x00, 0x79, 0xbb, 0x81, 0x3e, 0xdb, 0x97, 0x22, 0xbe, 
  0xcd, 0xce, 0xa2, 0x3e, 0xe6, 0xba, 0x8c, 0xbd, 0x78, 0x1b, 0x08, 0x3d, 
  0xe8, 0xc1, 0xa6, 0x3d, 0x30, 0xb1, 0xf7, 0xbd, 0x21, 0x5e, 0x7f, 0xbe, 
  0xb7, 0x84, 0x7e, 0xbe, 0x27, 0xcb, 0xd8, 0xbc, 0xaf, 0xea, 0x11, 0xbe, 
  0xc7, 0x8c, 0x81, 0x3e, 0x17, 0x33, 0x42, 0xbe, 0x76, 0x0c, 0xb4, 0x3e, 
  0x5d, 0x66, 0x8e, 0xbe, 0x58, 0x74, 0x59, 0x3d, 0xf0, 0x65, 0xb4, 0xbc, 
  0x5c, 0xeb, 0xa8, 0x3d, 0xe4, 0x0a, 0xd0, 0xbd, 0x58, 0xd6, 0x13, 0x3d, 
  0x7b, 0x2e, 0x1e, 0x3f, 0xdc, 0xca, 0x95, 0x3e, 0x46, 0x8c, 0x7e, 0xbc, 
  0xc4, 0xaa, 0x3f, 0xbe, 0xd7, 0xac, 0x95, 0x3e, 0xa2, 0x81, 0x51, 0x3e, 
  0xa6, 0xd4, 0x19, 0xbe, 0x92, 0x77, 0x47, 0x3e, 0x7f, 0x8e, 0x94, 0x3e, 
  0x72, 0x0e, 0xb9, 0xbd, 0x2c, 0xdd, 0xcb, 0xbd, 0x5f, 0x0e, 0x96, 0x3e, 
  0x86, 0x17, 0x43, 0x3e, 0x6e, 0x5d, 0x42, 0xbe, 0xaa, 0x9e, 0x6b, 0x3e, 
  0x18, 0xc1, 0x6e, 0xbd, 0x48, 0x48, 0x33, 0x3e, 0x16, 0xdf, 0x60, 0x3e, 
  0xd7, 0x0b, 0x8b, 0x3e, 0x90, 0xd9, 0x9a, 0xbe, 0x80, 0x17, 0x16, 0x3e, 
  0x56, 0xa1, 0x84, 0xbe, 0x32, 0xa1, 0x92, 0xbe, 0x84, 0x3a, 0xa6, 0x3b, 
  0x27, 0xc5, 0xcf, 0xbd, 0xd2, 0xab, 0xa5, 0x3e, 0xb4, 0x49, 0xbd, 0x3d, 
  0xb1, 0x43, 0xa6, 0x3d, 0x5c, 0xe8, 0x87, 0xbe, 0x90, 0x7d, 0x88, 0x3c, 
  0x60, 0x71, 0x97, 0xbd, 0x38, 0xab, 0x15, 0x3e, 0xd8, 0xea, 0xf1, 0x3d, 
  0x10, 0x58, 0xf9, 0x3c, 0xef, 0x4b, 0xe7, 0x3d, 0x8a, 0x6d, 0x0e, 0x3e, 
  0x5a, 0x2e, 0x6f, 0xbe, 0x1c, 0x2d, 0xd1, 0xbd, 0x02, 0xd3, 0x85, 0x3e, 
  0x2e, 0xba, 0xb1, 0x3e, 0xff, 0xd9, 0x25, 0xbe, 0xb6, 0xeb, 0x4a, 0x3e, 
  0x1a, 0x32, 0x70, 0x3e, 0x56, 0x80, 0x9f, 0x3e, 0x2e, 0xb8, 0x35, 0xbe, 
  0x7b, 0x07, 0xc5, 0x3f, 0xb6, 0xcf, 0x52, 0xbe, 0x08, 0xa3, 0xb0, 0x3d, 
  0x13, 0xf8, 0x25, 0xbf, 0xc0, 0x2a, 0xe2, 0x3d, 0xcb, 0x97, 0x22, 0xbe, 
  0xb6, 0x1b, 0x22, 0x3e, 0x38, 0x12, 0x79, 0xbe, 0xbc, 0xcd, 0x06, 0x3e, 
  0xa1, 0xc8, 0x91, 0xbe, 0x0e, 0x8a, 0x5a, 0xbe, 0x76, 0x7e, 0x47, 0x3e, 
  0x90, 0xf9, 0x62, 0xbd, 0x72, 0x8c, 0xe7, 0xbd, 0x39, 0xda, 0x32, 0xbe, 
  0x6f, 0x18, 0x22, 0xbe, 0x00, 0xe9, 0x4d, 0xbe, 0x3c, 0x70, 0x19, 0xbe, 
  0xcb, 0x5e, 0x95, 0x3e, 0x74, 0xef, 0x38, 0xbe, 0x94, 0xe8, 0x6d, 0xbe, 
  0xd2, 0x38, 0x71, 0xbe, 0xe0, 0xab, 0xc5, 0x3c, 0x5f, 0x91, 0xe8, 0xbd, 
  0x10, 0x4d, 0x24, 0xbe, 0xb9, 0x56, 0x7e, 0x3f, 0x7a, 0x15, 0x5f, 0x3f, 
  0x04, 0xb8, 0x39, 0x3f, 0xc9, 0x03, 0x9a, 0xbe, 0x43, 0xce, 0x61, 0xbe, 
  0xde, 0x76, 0x75, 0x3e, 0x92, 0xb4, 0x6a, 0x3e, 0x20, 0xc2, 0x44, 0xbc, 
  0xd0, 0x9a, 0xe6, 0x3d, 0xba, 0x43, 0xaf, 0x3e, 0x73, 0xb9, 0xd2, 0x3e, 
  0x12, 0xed, 0x25, 0x3e, 0x7c, 0xe7, 0x87, 0x3f, 0x5e, 0xb5, 0x65, 0x3f, 
  0x38, 0x6b, 0x2e, 0x3f, 0xa0, 0xb0, 0xb1, 0xbc, 0x8c, 0x9a, 0x5a, 0xbe, 
  0x24, 0xc2, 0x87, 0xbe, 0xef, 0xbc, 0xe8, 0xbe, 0xa6, 0x22, 0x02, 0x3e, 
  0xde, 0xfa, 0xab, 0x3f, 0x9c, 0x5c, 0x9c, 0x3e, 0x6d, 0xe2, 0x1a, 0xbc, 
  0xd4, 0xb3, 0x8a, 0xbe, 0x80, 0x84, 0x9f, 0x3d, 0xae, 0xf6, 0x62, 0xbe, 
  0xc8, 0xd5, 0x82, 0x3d, 0x54, 0x5d, 0x38, 0xbe, 0x3f, 0x01, 0x9e, 0xbe, 
  0x22, 0x2b, 0x15, 0x3e, 0x3f, 0xf7, 0x00, 0xbe, 0x78, 0xef, 0x0f, 0xbe, 
  0xb4, 0x64, 0x39, 0xbe, 0x49, 0xeb, 0x99, 0x3e, 0x1c, 0x80, 0x96, 0xbe, 
  0x3c, 0xb6, 0x94, 0xbe, 0xbd, 0x7c, 0x94, 0xbe, 0x30, 0xe9, 0x4d, 0x3d, 
  0xe7, 0x5e, 0x1c, 0xbe, 0x7b, 0x4e, 0x91, 0x3e, 0x72, 0xb6, 0x29, 0xbe, 
  0xbe, 0xeb, 0x68, 0x3e, 0x9e, 0x4a, 0x88, 0x3f, 0x34, 0xcd, 0x9a, 0x3f, 
  0xca, 0x26, 0x49, 0x3f, 0xa2, 0xd8, 0x71, 0x3d, 0x72, 0x63, 0x94, 0x3d, 
  0x02, 0xd0, 0x83, 0x3e, 0xeb, 0x3c, 0x80, 0xbe, 0x80, 0x47, 0x58, 0x3b, 
  0x80, 0x32, 0x5a, 0xbd, 0x40, 0xb9, 0xb3, 0xbd, 0x90, 0x66, 0x65, 0xbe, 
  0xce, 0x48, 0x5f, 0x3e, 0xac, 0x6d, 0x5b, 0xbe, 0x78, 0xaa, 0x90, 0xbb, 
  0x81, 0x91, 0x00, 0xbe, 0xce, 0x22, 0x47, 0x3d, 0xeb, 0x17, 0xf8, 0xbd, 
  0x83, 0x85, 0x1d, 0xbf, 0x00, 0x73, 0x87, 0xba, 0xf2, 0x5b, 0xdd, 0xbd, 
  0x1b, 0x2a, 0x88, 0x3e, 0xcd, 0x75, 0x81, 0x3b, 0x24, 0xb3, 0x40, 0x3d, 
  0x06, 0x7e, 0x1c, 0xbe, 0xf3, 0x95, 0xe2, 0x3d, 0x61, 0x60, 0x18, 0x3d, 
  0x4a, 0xae, 0x02, 0x3f, 0xb2, 0x98, 0xc1, 0xbd, 0xa8, 0x0e, 0x49, 0x3d, 
  0x04, 0x6e, 0x9a, 0xbe, 0xa0, 0xa0, 0x8d, 0xbd, 0x98, 0x91, 0x75, 0x3d, 
  0xb6, 0x6a, 0x73, 0x3e, 0x60, 0x7c, 0xc1, 0x3d, 0x70, 0x37, 0x42, 0x3e, 
  0xf0, 0x8c, 0xa6, 0xbc, 0x50, 0xc8, 0x9b, 0x3d, 0x81, 0xc0, 0x81, 0x3e, 
  0x7e, 0xf3, 0x64, 0x3e, 0x08, 0xe7, 0xf4, 0x3d, 0x22, 0x44, 0x47, 0xbe, 
  0x48, 0xa1, 0xc6, 0x3d, 0x8c, 0x16, 0x7a, 0xbd, 0x98, 0x88, 0x3e, 0x3d, 
  0xd7, 0x0a, 0x9a, 0x3e, 0x68, 0x55, 0x0e, 0x3f, 0x7f, 0xc2, 0x61, 0x3d, 
  0x18, 0xc0, 0x5c, 0x3e, 0x50, 0xd5, 0xff, 0xff, 0x54, 0xd5, 0xff, 0xff, 
  0x58, 0xd5, 0xff, 0xff, 0x5c, 0xd5, 0xff, 0xff, 0x60, 0xd5, 0xff, 0xff, 
  0x64, 0xd5, 0xff, 0xff, 0x68, 0xd5, 0xff, 0xff, 0x6c, 0xd5, 0xff, 0xff, 
  0x70, 0xd5, 0xff, 0xff, 0x74, 0xd5, 0xff, 0xff, 0x78, 0xd5, 0xff, 0xff, 
  0x7c, 0xd5, 0xff, 0xff, 0x80, 0xd5, 0xff, 0xff, 0x84, 0xd5, 0xff, 0xff, 
  0x88, 0xd5, 0xff, 0xff, 0x8c, 0xd5, 0xff, 0xff, 0x90, 0xd5, 0xff, 0xff, 
  0x94, 0xd5, 0xff, 0xff, 0x98, 0xd5, 0xff, 0xff, 0x9c, 0xd5, 0xff, 0xff, 
  0xa0, 0xd5, 0xff, 0xff, 0xa4, 0xd5, 0xff, 0xff, 0xa8, 0xd5, 0xff, 0xff, 
  0xac, 0xd5, 0xff, 0xff, 0xb0, 0xd5, 0xff, 0xff, 0xb4, 0xd5, 0xff, 0xff, 
  0xb8, 0xd5, 0xff, 0xff, 0xbc, 0xd5, 0xff, 0xff, 0xc0, 0xd5, 0xff, 0xff, 
  0xc4, 0xd5, 0xff, 0xff, 0xc8, 0xd5, 0xff, 0xff, 0xcc, 0xd5, 0xff, 0xff, 
  0xd0, 0xd5, 0xff, 0xff, 0xd4, 0xd5, 0xff, 0xff, 0xd8, 0xd5, 0xff, 0xff, 
  0xdc, 0xd5, 0xff, 0xff, 0xb2, 0xe3, 0xff, 0xff, 0x04, 0x00, 0x00, 0x00, 
  0x08, 0x00, 0x00, 0x00, 0xff, 0xff, 0xff, 0xff, 0x0f, 0x00, 0x00, 0x00, 
  0xf4, 0xd5, 0xff, 0xff, 0xf8, 0xd5, 0xff, 0xff, 0xce, 0xe3, 0xff, 0xff, 
  0x04, 0x00, 0x00, 0x00, 0x04, 0x00, 0x00, 0x00, 0x01, 0x00, 0x00, 0x00, 
  0xde, 0xe3, 0xff, 0xff, 0x04, 0x00, 0x00, 0x00, 0x0c, 0x00, 0x00, 0x00, 
  0x01, 0x00, 0x00, 0x00, 0x00, 0x00, 0x00, 0x00, 0x02, 0x00, 0x00, 0x00, 
  0xf6, 0xe3, 0xff, 0xff, 0x04, 0x00, 0x00, 0x00, 0x04, 0x00, 0x00, 0x00, 
  0x00, 0x00, 0x00, 0x00, 0x06, 0xe4, 0xff, 0xff, 0x04, 0x00, 0x00, 0x00, 
  0x04, 0x00, 0x00, 0x00, 0x0f, 0x00, 0x00, 0x00, 0x16, 0xe4, 0xff, 0xff, 
  0x04, 0x00, 0x00, 0x00, 0x04, 0x00, 0x00, 0x00, 0x03, 0x00, 0x00, 0x00, 
  0x26, 0xe4, 0xff, 0xff, 0x04, 0x00, 0x00, 0x00, 0x3c, 0x00, 0x00, 0x00, 
  0xa8, 0x0e, 0x44, 0xbe, 0x1a, 0xaa, 0x89, 0xbe, 0x40, 0x0a, 0x35, 0xbc, 
  0xba, 0x76, 0xc3, 0x3e, 0x29, 0x07, 0x2b, 0x3f, 0xb2, 0x8d, 0x4e, 0xbe, 
  0x61, 0xd2, 0x60, 0xbe, 0xbd, 0xe3, 0x01, 0xbd, 0xb2, 0xfa, 0xc3, 0x3b, 
  0x6c, 0x13, 0x9e, 0xbd, 0x00, 0x00, 0x00, 0x00, 0xcf, 0x13, 0x02, 0xbd, 
  0xf3, 0x0c, 0x91, 0x3e, 0x20, 0xf7, 0x8a, 0x3d, 0xd6, 0x47, 0xfc, 0x3e, 
  0x6e, 0xe4, 0xff, 0xff, 0x04, 0x00, 0x00, 0x00, 0x04, 0x00, 0x00, 0x00, 
  0xe6, 0xb2, 0xa6, 0xbd, 0x7e, 0xe4, 0xff, 0xff, 0x04, 0x00, 0x00, 0x00, 
  0x84, 0x03, 0x00, 0x00, 0xd3, 0x04, 0x2c, 0x3f, 0xcd, 0xdb, 0x72, 0xbe, 
  0xa0, 0xe9, 0x51, 0x3c, 0x7c, 0x6f, 0x2c, 0xbe, 0xb7, 0x9d, 0x03, 0x3f, 
  0xdc, 0x18, 0x87, 0xbe, 0xad, 0x1d, 0x91, 0xbe, 0xe0, 0xd5, 0xf8, 0xbc, 
  0xdf, 0xcc, 0x6f, 0xbe, 0x28, 0x77, 0x28, 0x3d, 0x00, 0xb2, 0x0b, 0x3e, 
  0x0f, 0xac, 0x8d, 0xbe, 0xfa, 0xf6, 0x85, 0x3e, 0x6a, 0xdd, 0x98, 0x3e, 
  0x56, 0x38, 0x69, 0x3c, 0x25, 0x6e, 0xb2, 0x3c, 0xb5, 0x94, 0x4b, 0xbe, 
  0x88, 0x0b, 0xa2, 0x3d, 0xc7, 0x76, 0x86, 0x3e, 0xd2, 0x1d, 0x8c, 0xba, 
  0xea, 0xc6, 0x8a, 0xbe, 0x2e, 0xa7, 0x2c, 0xbd, 0x74, 0x75, 0x73, 0x3c, 
  0xe0, 0x4e, 0x4f, 0x3c, 0x60, 0x1a, 0x3b, 0xbc, 0xda, 0x9e, 0x5a, 0xbe, 
  0x54, 0xe0, 0x27, 0xbe, 0x08, 0xc9, 0x34, 0x3d, 0x32, 0x9d, 0x9a, 0x3e, 
  0x34, 0x20, 0xed, 0xbc, 0xa7, 0x99, 0x33, 0xbe, 0xac, 0x63, 0xdc, 0x3e, 
  0xd4, 0xca, 0x00, 0x3e, 0x80, 0x08, 0xb5, 0x3c, 0xb1, 0xe2, 0xd4, 0xbe, 
  0xa6, 0x23, 0xbd, 0xbe, 0x83, 0x6c, 0xfd, 0xbe, 0xc5, 0x5d, 0x6c, 0x3c, 
  0xc0, 0x57, 0x88, 0x3d, 0x60, 0xce, 0x1e, 0x3c, 0x5e, 0x01, 0x26, 0xbe, 
  0xf8, 0xf1, 0x97, 0x3d, 0xc0, 0xbf, 0xb8, 0xbd, 0x3e, 0x39, 0xa8, 0xbe, 
  0xe6, 0x01, 0x83, 0x3e, 0x6b, 0xd8, 0x13, 0x3f, 0xc0, 0x09, 0xb9, 0x3b, 
  0xd2, 0x78, 0x11, 0xbe, 0xd9, 0x27, 0x27, 0xbc, 0x16, 0x6c, 0x8f, 0xbe, 
  0xc4, 0xa9, 0xc5, 0xbd, 0x94, 0x60, 0xf2, 0x3e, 0x49, 0x1f, 0x63, 0xbe, 
  0x0a, 0x61, 0x8e, 0x3e, 0xd0, 0x81, 0xb6, 0x3d, 0x70, 0xe7, 0x5a, 0x3d, 
  0x7c, 0xfb, 0x7b, 0x3e, 0xf4, 0x7a, 0x18, 0xbe, 0x49, 0x5d, 0x5d, 0xbe, 
  0x82, 0x90, 0x4f, 0x3f, 0xa6, 0x1b, 0x36, 0xbd, 0xd6, 0x18, 0x31, 0xbe, 
  0x9c, 0xf6, 0x46, 0xbe, 0x06, 0x49, 0xdb, 0x3d, 0xaa, 0xad, 0x82, 0x3d, 
  0x02, 0xb8, 0xda, 0xbe, 0x8e, 0x4b, 0x88, 0x3d, 0x46, 0xd6, 0xc7, 0xbe, 
  0x30, 0x7e, 0xd0, 0xbe, 0xc8, 0x67, 0x75, 0xbd, 0x00, 0x39, 0x8f, 0xbc, 
  0x6c, 0xb1, 0xd0, 0xbe, 0x60, 0x11, 0xa7, 0x3d, 0x60, 0xb7, 0x3c, 0x3d, 
  0xdd, 0xe1, 0x62, 0x3f, 0xbb, 0x3d, 0x47, 0x3d, 0x03, 0x82, 0xb6, 0xbe, 
  0xa0, 0xc3, 0x72, 0xbe, 0x1e, 0x3d, 0x63, 0x3e, 0x0a, 0x11, 0x5d, 0xbf, 
  0xfa, 0xf8, 0x94, 0x3e, 0x22, 0xd9, 0xbc, 0x3e, 0xa6, 0x14, 0x92, 0xbe, 
  0x1c, 0x02, 0x9f, 0xbe, 0x58, 0x91, 0x82, 0xbe, 0x18, 0x8a, 0x5e, 0xbd, 
  0xc0, 0x18, 0x2e, 0xbd, 0x2a, 0xeb, 0x6d, 0xbe, 0xa8, 0x7f, 0x8c, 0xbd, 
  0x52, 0x97, 0x5b, 0xbf, 0x2b, 0x49, 0x7c, 0xbe, 0x28, 0x55, 0x24, 0x3d, 
  0x40, 0x5e, 0x6d, 0xbd, 0xee, 0x60, 0xdf, 0xbc, 0xed, 0x7e, 0x13, 0xbf, 
  0x7c, 0xe7, 0xe3, 0xbd, 0xdc, 0x98, 0xd8, 0x3e, 0xf8, 0xa9, 0x45, 0xbe, 
  0x00, 0xc2, 0xaf, 0x3d, 0xc0, 0x36, 0x78, 0xbc, 0x76, 0xe5, 0xc5, 0xbe, 
  0x50, 0xa0, 0xf9, 0xbd, 0xe8, 0x86, 0xd6, 0x3e, 0xf5, 0xe0, 0xcb, 0xbe, 
  0x0a, 0x6e, 0x46, 0xbf, 0xaf, 0xcb, 0x8d, 0xbe, 0x3e, 0x30, 0x64, 0xbe, 
  0xc4, 0x53, 0x7e, 0x3e, 0xfc, 0xdc, 0x48, 0x3e, 0xb2, 0xd1, 0xeb, 0xbe, 
  0x9c, 0x64, 0x30, 0x3e, 0x53, 0xae, 0xa4, 0xbe, 0x1d, 0x52, 0x83, 0xbc, 
  0x3c, 0xff, 0x89, 0x3e, 0xc4, 0xa9, 0xf0, 0xbd, 0x50, 0x79, 0xc1, 0xbe, 
  0xa8, 0x95, 0x76, 0xbd, 0x06, 0xfd, 0xd7, 0x3e, 0x40, 0x8b, 0x6f, 0x3c, 
  0xff, 0xe7, 0xc0, 0x3e, 0xf5, 0x25, 0x0b, 0x3e, 0x30, 0x31, 0xc5, 0x3e, 
  0x4e, 0xb1, 0x82, 0xbe, 0x5d, 0x76, 0xab, 0xbe, 0x8f, 0xfd, 0x74, 0x3f, 
  0xf8, 0xaa, 0x5a, 0xbd, 0x01, 0xab, 0x63, 0xbf, 0xb2, 0x53, 0xdc, 0x3c, 
  0x28, 0xeb, 0xe6, 0x3d, 0xbc, 0x02, 0xdb, 0x3e, 0xc8, 0x00, 0xfc, 0x3d, 
  0xc4, 0xe9, 0xc8, 0x3e, 0x94, 0x0f, 0x7a, 0xbe, 0x90, 0x3e, 0x9e, 0xbd, 
  0x72, 0x03, 0xbd, 0xbd, 0x33, 0xa2, 0x31, 0x3d, 0x30, 0xa4, 0x42, 0xbd, 
  0xd3, 0x8a, 0x51, 0xbe, 0x8c, 0xc3, 0xd3, 0x3e, 0xb0, 0xae, 0xec, 0xbe, 
  0xd8, 0xfd, 0x51, 0x3e, 0xbd, 0xbe, 0xfc, 0xbe, 0xae, 0x06, 0xf7, 0xbd, 
  0x20, 0x52, 0x54, 0xbd, 0xcb, 0xe2, 0xe4, 0xbe, 0x0e, 0x4d, 0xc3, 0x3e, 
  0x46, 0x34, 0x84, 0xbe, 0x2b, 0x7c, 0x7b, 0xbe, 0x62, 0x99, 0x6e, 0xbe, 
  0x28, 0x80, 0x97, 0xbd, 0xfc, 0x62, 0xbd, 0xbe, 0x5c, 0x56, 0xb4, 0x3e, 
  0xae, 0x8a, 0xe0, 0x3e, 0x48, 0xa4, 0x33, 0x3e, 0x8c, 0x71, 0x90, 0xbe, 
  0x58, 0x4c, 0xbc, 0xbe, 0x28, 0x0e, 0xe0, 0xbd, 0x00, 0xcc, 0x1c, 0x3b, 
  0xe1, 0x2d, 0x4c, 0xbe, 0x08, 0xc1, 0xa0, 0x3d, 0x47, 0x41, 0x81, 0xbe, 
  0xfc, 0xa8, 0xb0, 0xbd, 0xc8, 0x54, 0x01, 0x3d, 0x62, 0xc9, 0xc5, 0xbe, 
  0xc8, 0xcf, 0x05, 0x3e, 0xe5, 0x89, 0x45, 0xbe, 0x70, 0xc5, 0x56, 0x3d, 
  0xf8, 0x56, 0xdb, 0x3d, 0x08, 0x23, 0x7c, 0x3e, 0x4a, 0x93, 0x2b, 0xbe, 
  0xee, 0x27, 0x89, 0x3e, 0x59, 0x34, 0xb4, 0xbe, 0x42, 0x85, 0x4d, 0x3c, 
  0xd2, 0x17, 0xd9, 0xbe, 0xb8, 0xed, 0x89, 0x3e, 0xf8, 0x13, 0x36, 0xbd, 
  0xf8, 0x3a, 0xe5, 0x3d, 0x2a, 0x97, 0xc1, 0xbe, 0x9e, 0xf9, 0xce, 0x3e, 
  0x49, 0x6f, 0x86, 0xbe, 0x8d, 0xc4, 0x14, 0xbf, 0x00, 0xbf, 0x01, 0x3d, 
  0x6c, 0x77, 0xb9, 0xbe, 0x7f, 0x6d, 0x26, 0xbf, 0x3b, 0x55, 0xa8, 0xbe, 
  0x00, 0x2f, 0x7c, 0x3e, 0xdc, 0x58, 0x93, 0x3d, 0x78, 0x0b, 0xc8, 0x3e, 
  0x5c, 0x48, 0xc4, 0xbd, 0xb4, 0x4c, 0xaf, 0xbd, 0x68, 0xdb, 0xd8, 0x3d, 
  0xda, 0xd6, 0x70, 0xbe, 0x70, 0xf4, 0xe2, 0xbc, 0x64, 0xdf, 0x59, 0xbe, 
  0x68, 0xf8, 0xda, 0x3d, 0xff, 0x6e, 0x92, 0x3e, 0x70, 0xc6, 0xc0, 0xbe, 
  0xe6, 0x38, 0x92, 0x3e, 0xf3, 0x0a, 0x56, 0xbe, 0x84, 0xb1, 0x46, 0xbf, 
  0x60, 0x01, 0x2d, 0xbe, 0x1d, 0x58, 0x05, 0x3f, 0x6f, 0xeb, 0x63, 0xbe, 
  0x17, 0x66, 0xb7, 0xbe, 0x00, 0x23, 0x85, 0xbe, 0x32, 0x59, 0xa4, 0x3e, 
  0x70, 0xc9, 0x05, 0x3e, 0x02, 0xd1, 0xd2, 0xbe, 0x36, 0x82, 0x89, 0xbe, 
  0xff, 0x8d, 0x9b, 0xbe, 0x6f, 0x3e, 0x72, 0xbe, 0x40, 0x69, 0x2d, 0x3e, 
  0x6e, 0x2f, 0x8e, 0x3e, 0x89, 0x7a, 0xe5, 0x3d, 0xe2, 0x92, 0x13, 0x3f, 
  0xc0, 0xab, 0x97, 0xbd, 0xf1, 0x5d, 0x11, 0x3d, 0xf3, 0x3e, 0x98, 0xbe, 
  0xe4, 0x13, 0x6d, 0x3e, 0x86, 0x8d, 0xa4, 0x3e, 0x80, 0x87, 0x38, 0x3d, 
  0xd4, 0xa4, 0x2b, 0xbe, 0xe4, 0xa2, 0x85, 0xbe, 0x80, 0x51, 0xef, 0xbb, 
  0xf0, 0xc8, 0xb1, 0x3f, 0x0e, 0xe8, 0xff, 0xff, 0x04, 0x00, 0x00, 0x00, 
  0x3c, 0x00, 0x00, 0x00, 0x13, 0x50, 0xdf, 0x3e, 0x8a, 0xdd, 0x6d, 0xbc, 
  0x5e, 0x93, 0x1a, 0xbf, 0x94, 0xb5, 0xce, 0xbe, 0xc6, 0x37, 0x8b, 0xbf, 
  0x4f, 0x42, 0xbe, 0x3e, 0xa2, 0x5e, 0x39, 0x3f, 0x9a, 0xa9, 0xc8, 0xbe, 
  0x9b, 0x51, 0x5f, 0x3f, 0xd0, 0x20, 0x90, 0xbc, 0xe3, 0x3c, 0xff, 0xbe, 
  0xf1, 0x5b, 0xc3, 0x3e, 0xcb, 0x14, 0x0e, 0x3f, 0x57, 0x82, 0x85, 0x3e, 
  0xee, 0x2b, 0x57, 0xbf, 0x56, 0xe8, 0xff, 0xff, 0x04, 0x00, 0x00, 0x00, 
  0x0c, 0x00, 0x00, 0x00, 0xff, 0xff, 0xff, 0xff, 0x00, 0x00, 0x00, 0x00, 
  0x00, 0x00, 0x00, 0x00, 0x6e, 0xe8, 0xff, 0xff, 0x04, 0x00, 0x00, 0x00, 
  0x0c, 0x00, 0x00, 0x00, 0x00, 0x00, 0x00, 0x00, 0x00, 0x00, 0x00, 0x00, 
  0x0f, 0x00, 0x00, 0x00, 0x86, 0xe8, 0xff, 0xff, 0x04, 0x00, 0x00, 0x00, 
  0x0c, 0x00, 0x00, 0x00, 0x01, 0x00, 0x00, 0x00, 0x01, 0x00, 0x00, 0x00, 
  0x01, 0x00, 0x00, 0x00, 0xcc, 0xda, 0xff, 0xff, 0xd0, 0xda, 0xff, 0xff, 
  0x0f, 0x00, 0x00, 0x00, 0x4d, 0x4c, 0x49, 0x52, 0x20, 0x43, 0x6f, 0x6e, 
  0x76, 0x65, 0x72, 0x74, 0x65, 0x64, 0x2e, 0x00, 0x03, 0x00, 0x00, 0x00, 
  0xe0, 0x14, 0x00, 0x00, 0x14, 0x11, 0x00, 0x00, 0x04, 0x00, 0x00, 0x00, 
  0x3a, 0xeb, 0xff, 0xff, 0x14, 0x00, 0x00, 0x00, 0x38, 0x00, 0x00, 0x00, 
  0x88, 0x04, 0x00, 0x00, 0xa0, 0x04, 0x00, 0x00, 0xb8, 0x04, 0x00, 0x00, 
  0x20, 0x00, 0x00, 0x00, 0x73, 0x65, 0x71, 0x75, 0x65, 0x6e, 0x74, 0x69, 
  0x61, 0x6c, 0x5f, 0x31, 0x5f, 0x31, 0x2f, 0x6c, 0x73, 0x74, 0x6d, 0x5f, 
  0x31, 0x2f, 0x77, 0x68, 0x69, 0x6c, 0x65, 0x5f, 0x62, 0x6f, 0x64, 0x79, 
  0x00, 0x00, 0x00, 0x00, 0x12, 0x00, 0x00, 0x00, 0x20, 0x04, 0x00, 0x00, 
  0xe8, 0x03, 0x00, 0x00, 0xb4, 0x03, 0x00, 0x00, 0x80, 0x03, 0x00, 0x00, 
  0x48, 0x03, 0x00, 0x00, 0x14, 0x03, 0x00, 0x00, 0xe0, 0x02, 0x00, 0x00, 
  0x9c, 0x02, 0x00, 0x00, 0x78, 0x02, 0x00, 0x00, 0x54, 0x02, 0x00, 0x00, 
  0x20, 0x02, 0x00, 0x00, 0xfc, 0x01, 0x00, 0x00, 0xc8, 0x01, 0x00, 0x00, 
  0x94, 0x01, 0x00, 0x00, 0x70, 0x01, 0x00, 0x00, 0x4c, 0x01, 0x00, 0x00, 
  0x18, 0x01, 0x00, 0x00, 0x04, 0x00, 0x00, 0x00, 0xa8, 0xe8, 0xff, 0xff, 
  0x10, 0x00, 0x00, 0x00, 0xf0, 0x00, 0x00, 0x00, 0xf4, 0x00, 0x00, 0x00, 
  0x11, 0x00, 0x00, 0x00, 0xde, 0x00, 0x00, 0x00, 0x11, 0x54, 0x65, 0x6e, 
  0x73, 0x6f, 0x72, 0x4c, 0x69, 0x73, 0x74, 0x53, 0x65, 0x74, 0x49, 0x74, 
  0x65, 0x6d, 0x00, 0xc1, 0x12, 0x11, 0x54, 0x65, 0x6e, 0x73, 0x6f, 0x72, 
  0x4c, 0x69, 0x73, 0x74, 0x53, 0x65, 0x74, 0x49, 0x74, 0x65, 0x6d, 0x1a, 
  0x00, 0x1a, 0x00, 0x1a, 0x00, 0x2a, 0x23, 0x0a, 0x1d, 0x72, 0x65, 0x73, 
  0x69, 0x7a, 0x65, 0x5f, 0x69, 0x66, 0x5f, 0x69, 0x6e, 0x64, 0x65, 0x78, 
  0x5f, 0x6f, 0x75, 0x74, 0x5f, 0x6f, 0x66, 0x5f, 0x62, 0x6f, 0x75, 0x6e, 
  0x64, 0x73, 0x12, 0x02, 0x28, 0x00, 0x2a, 0x13, 0x0a, 0x0d, 0x65, 0x6c, 
  0x65, 0x6d, 0x65, 0x6e, 0x74, 0x5f, 0x64, 0x74, 0x79, 0x70, 0x65, 0x12, 
  0x02, 0x30, 0x01, 0x32, 0x6c, 0x0a, 0x40, 0x73, 0x65, 0x71, 0x75, 0x65, 
  0x6e, 0x74, 0x69, 0x61, 0x6c, 0x5f, 0x31, 0x5f, 0x31, 0x2f, 0x6c, 0x73, 
  0x74, 0x6d, 0x5f, 0x31, 0x2f, 0x77, 0x68, 0x69, 0x6c, 0x65, 0x2f, 0x54, 
  0x65, 0x6e, 0x73, 0x6f, 0x72, 0x41, 0x72, 0x72, 0x61, 0x79, 0x56, 0x32, 
  0x57, 0x72, 0x69, 0x74, 0x65, 0x2f, 0x54, 0x65, 0x6e, 0x73, 0x6f, 0x72, 
  0x4c, 0x69, 0x73, 0x74, 0x53, 0x65, 0x74, 0x49, 0x74, 0x65, 0x6d, 0x12, 
  0x28, 0x73, 0x65, 0x71, 0x75, 0x65, 0x6e, 0x74, 0x69, 0x61, 0x6c, 0x5f, 
  0x31, 0x5f, 0x31, 0x5f, 0x6c, 0x73, 0x74, 0x6d, 0x5f, 0x31, 0x5f, 0x77, 
  0x68, 0x69, 0x6c, 0x65, 0x5f, 0x62, 0x6f, 0x64, 0x79, 0x5f, 0x31, 0x35, 
  0x35, 0x39, 0x38, 0x39, 0x31, 0x00, 0x02, 0xd6, 0xc4, 0x14, 0x14, 0x04, 
  0x28, 0x01, 0x00, 0x00, 0x01, 0x00, 0x00, 0x00, 0x1f, 0x00, 0x00, 0x00, 
  0x03, 0x00, 0x00, 0x00, 0x02, 0x00, 0x00, 0x00, 0x06, 0x00, 0x00, 0x00, 
  0x1e, 0x00, 0x00, 0x00, 0x12, 0xea, 0xff, 0xff, 0x14, 0x00, 0x00, 0x00, 
  0x00, 0x00, 0x00, 0x15, 0x10, 0x00, 0x00, 0x00, 0x14, 0x00, 0x00, 0x00, 
  0x10, 0x00, 0x00, 0x00, 0xac, 0xdc, 0xff, 0xff, 0x01, 0x00, 0x00, 0x00, 
  0x1e, 0x00, 0x00, 0x00, 0x02, 0x00, 0x00, 0x00, 0x1d, 0x00, 0x00, 0x00, 
  0x1c, 0x00, 0x00, 0x00, 0x72, 0xea, 0xff, 0xff, 0x0c, 0x00, 0x00, 0x00, 
  0x10, 0x00, 0x00, 0x00, 0x09, 0x00, 0x00, 0x00, 0x01, 0x00, 0x00, 0x00, 
  0x1d, 0x00, 0x00, 0x00, 0x01, 0x00, 0x00, 0x00, 0x15, 0x00, 0x00, 0x00, 
  0x92, 0xea, 0xff, 0xff, 0x0c, 0x00, 0x00, 0x00, 0x10, 0x00, 0x00, 0x00, 
  0x0f, 0x00, 0x00, 0x00, 0x01, 0x00, 0x00, 0x00, 0x1c, 0x00, 0x00, 0x00, 
  0x01, 0x00, 0x00, 0x00, 0x1b, 0x00, 0x00, 0x00, 0x82, 0xea, 0xff, 0xff, 
  0x14, 0x00, 0x00, 0x00, 0x00, 0x00, 0x00, 0x0b, 0x10, 0x00, 0x00, 0x00, 
  0x14, 0x00, 0x00, 0x00, 0x0c, 0x00, 0x00, 0x00, 0x1c, 0xdd, 0xff, 0xff, 
  0x01, 0x00, 0x00, 0x00, 0x1b, 0x00, 0x00, 0x00, 0x02, 0x00, 0x00, 0x00, 
  0x1a, 0x00, 0x00, 0x00, 0x18, 0x00, 0x00, 0x00, 0xb2, 0xea, 0xff, 0xff, 
  0x14, 0x00, 0x00, 0x00, 0x00, 0x00, 0x00, 0x15, 0x10, 0x00, 0x00, 0x00, 
  0x14, 0x00, 0x00, 0x00, 0x10, 0x00, 0x00, 0x00, 0x4c, 0xdd, 0xff, 0xff, 
  0x01, 0x00, 0x00, 0x00, 0x1a, 0x00, 0x00, 0x00, 0x02, 0x00, 0x00, 0x00, 
  0x19, 0x00, 0x00, 0x00, 0x04, 0x00, 0x00, 0x00, 0x12, 0xeb, 0xff, 0xff, 
  0x0c, 0x00, 0x00, 0x00, 0x10, 0x00, 0x00, 0x00, 0x09, 0x00, 0x00, 0x00, 
  0x01, 0x00, 0x00, 0x00, 0x19, 0x00, 0x00, 0x00, 0x01, 0x00, 0x00, 0x00, 
  0x13, 0x00, 0x00, 0x00, 0x02, 0xeb, 0xff, 0xff, 0x14, 0x00, 0x00, 0x00, 
  0x00, 0x00, 0x00, 0x15, 0x10, 0x00, 0x00, 0x00, 0x14, 0x00, 0x00, 0x00, 
  0x10, 0x00, 0x00, 0x00, 0x9c, 0xdd, 0xff, 0xff, 0x01, 0x00, 0x00, 0x00, 
  0x18, 0x00, 0x00, 0x00, 0x02, 0x00, 0x00, 0x00, 0x17, 0x00, 0x00, 0x00, 
  0x16, 0x00, 0x00, 0x00, 0x62, 0xeb, 0xff, 0xff, 0x0c, 0x00, 0x00, 0x00, 
  0x10, 0x00, 0x00, 0x00, 0x09, 0x00, 0x00, 0x00, 0x01, 0x00, 0x00, 0x00, 
  0x17, 0x00, 0x00, 0x00, 0x01, 0x00, 0x00, 0x00, 0x12, 0x00, 0x00, 0x00, 
  0x82, 0xeb, 0xff, 0xff, 0x0c, 0x00, 0x00, 0x00, 0x10, 0x00, 0x00, 0x00, 
  0x0f, 0x00, 0x00, 0x00, 0x01, 0x00, 0x00, 0x00, 0x16, 0x00, 0x00, 0x00, 
  0x01, 0x00, 0x00, 0x00, 0x14, 0x00, 0x00, 0x00, 0x72, 0xeb, 0xff, 0xff, 
  0x14, 0x00, 0x00, 0x00, 0x00, 0x00, 0x00, 0x23, 0x14, 0x00, 0x00, 0x00, 
  0x24, 0x00, 0x00, 0x00, 0x0e, 0x00, 0x00, 0x00, 0xde, 0xeb, 0xff, 0xff, 
  0x04, 0x00, 0x00, 0x00, 0x04, 0x00, 0x00, 0x00, 0x12, 0x00, 0x00, 0x00, 
  0x13, 0x00, 0x00, 0x00, 0x14, 0x00, 0x00, 0x00, 0x15, 0x00, 0x00, 0x00, 
  0x02, 0x00, 0x00, 0x00, 0x07, 0x00, 0x00, 0x00, 0x11, 0x00, 0x00, 0x00, 
  0xb2, 0xeb, 0xff, 0xff, 0x14, 0x00, 0x00, 0x00, 0x00, 0x00, 0x00, 0x0b, 
  0x10, 0x00, 0x00, 0x00, 0x14, 0x00, 0x00, 0x00, 0x0c, 0x00, 0x00, 0x00, 
  0x4c, 0xde, 0xff, 0xff, 0x01, 0x00, 0x00, 0x00, 0x11, 0x00, 0x00, 0x00, 
  0x02, 0x00, 0x00, 0x00, 0x10, 0x00, 0x00, 0x00, 0x0a, 0x00, 0x00, 0x00, 
  0xe2, 0xeb, 0xff, 0xff, 0x14, 0x00, 0x00, 0x00, 0x00, 0x00, 0x00, 0x0b, 
  0x10, 0x00, 0x00, 0x00, 0x14, 0x00, 0x00, 0x00, 0x0c, 0x00, 0x00, 0x00, 
  0x7c, 0xde, 0xff, 0xff, 0x01, 0x00, 0x00, 0x00, 0x10, 0x00, 0x00, 0x00, 
  0x02, 0x00, 0x00, 0x00, 0x0f, 0x00, 0x00, 0x00, 0x0c, 0x00, 0x00, 0x00, 
  0x12, 0xec, 0xff, 0xff, 0x14, 0x00, 0x00, 0x00, 0x00, 0x00, 0x00, 0x08, 
  0x10, 0x00, 0x00, 0x00, 0x14, 0x00, 0x00, 0x00, 0x08, 0x00, 0x00, 0x00, 
  0xac, 0xde, 0xff, 0xff, 0x01, 0x00, 0x00, 0x00, 0x0f, 0x00, 0x00, 0x00, 
  0x03, 0x00, 0x00, 0x00, 0x0e, 0x00, 0x00, 0x00, 0x08, 0x00, 0x00, 0x00, 
  0xff, 0xff, 0xff, 0xff, 0x46, 0xec, 0xff, 0xff, 0x14, 0x00, 0x00, 0x00, 
  0x00, 0x00, 0x00, 0x17, 0x10, 0x00, 0x00, 0x00, 0x14, 0x00, 0x00, 0x00, 
  0x0d, 0x00, 0x00, 0x00, 0xe0, 0xde, 0xff, 0xff, 0x01, 0x00, 0x00, 0x00, 
  0x0e, 0x00, 0x00, 0x00, 0x02, 0x00, 0x00, 0x00, 0x05, 0x00, 0x00, 0x00, 
  0x01, 0x00, 0x00, 0x00, 0x76, 0xec, 0xff, 0xff, 0x14, 0x00, 0x00, 0x00, 
  0x00, 0x00, 0x00, 0x0b, 0x10, 0x00, 0x00, 0x00, 0x14, 0x00, 0x00, 0x00, 
  0x0c, 0x00, 0x00, 0x00, 0x10, 0xdf, 0xff, 0xff, 0x01, 0x00, 0x00, 0x00, 
  0x0d, 0x00, 0x00, 0x00, 0x02, 0x00, 0x00, 0x00, 0x00, 0x00, 0x00, 0x00, 
  0x07, 0x00, 0x00, 0x00, 0xa6, 0xec, 0xff, 0xff, 0x14, 0x00, 0x00, 0x00, 
  0x00, 0x00, 0x00, 0x08, 0x10, 0x00, 0x00, 0x00, 0x14, 0x00, 0x00, 0x00, 
  0x08, 0x00, 0x00, 0x00, 0x40, 0xdf, 0xff, 0xff, 0x01, 0x00, 0x00, 0x00, 
  0x0c, 0x00, 0x00, 0x00, 0x03, 0x00, 0x00, 0x00, 0x03, 0x00, 0x00, 0x00, 
  0x09, 0x00, 0x00, 0x00, 0xff, 0xff, 0xff, 0xff, 0xda, 0xec, 0xff, 0xff, 
  0x14, 0x00, 0x00, 0x00, 0x00, 0x00, 0x00, 0x0b, 0x10, 0x00, 0x00, 0x00, 
  0x14, 0x00, 0x00, 0x00, 0x0c, 0x00, 0x00, 0x00, 0x74, 0xdf, 0xff, 0xff, 
  0x01, 0x00, 0x00, 0x00, 0x0b, 0x00, 0x00, 0x00, 0x02, 0x00, 0x00, 0x00, 
  0x01, 0x00, 0x00, 0x00, 0x07, 0x00, 0x00, 0x00, 0x06, 0x00, 0x00, 0x00, 
  0x0d, 0x00, 0x00, 0x00, 0x0b, 0x00, 0x00, 0x00, 0x1f, 0x00, 0x00, 0x00, 
  0x1e, 0x00, 0x00, 0x00, 0x1b, 0x00, 0x00, 0x00, 0x05, 0x00, 0x00, 0x00, 
  0x06, 0x00, 0x00, 0x00, 0x00, 0x00, 0x00, 0x00, 0x01, 0x00, 0x00, 0x00, 
  0x02, 0x00, 0x00, 0x00, 0x03, 0x00, 0x00, 0x00, 0x04, 0x00, 0x00, 0x00, 
  0x05, 0x00, 0x00, 0x00, 0x20, 0x00, 0x00, 0x00, 0x0c, 0x0c, 0x00, 0x00, 
  0xd8, 0x0b, 0x00, 0x00, 0x80, 0x0b, 0x00, 0x00, 0x38, 0x0b, 0x00, 0x00, 
  0xf0, 0x0a, 0x00, 0x00, 0xa0, 0x0a, 0x00, 0x00, 0x60, 0x0a, 0x00, 0x00, 
  0x20, 0x0a, 0x00, 0x00, 0xdc, 0x09, 0x00, 0x00, 0x98, 0x09, 0x00, 0x00, 
  0x2c, 0x09, 0x00, 0x00, 0xe0, 0x08, 0x00, 0x00, 0x6c, 0x08, 0x00, 0x00, 
  0x1c, 0x08, 0x00, 0x00, 0x98, 0x07, 0x00, 0x00, 0x28, 0x07, 0x00, 0x00, 
  0xbc, 0x06, 0x00, 0x00, 0x4c, 0x06, 0x00, 0x00, 0xdc, 0x05, 0x00, 0x00, 
  0x6c, 0x05, 0x00, 0x00, 0xfc, 0x04, 0x00, 0x00, 0x8c, 0x04, 0x00, 0x00, 
  0x1c, 0x04, 0x00, 0x00, 0xac, 0x03, 0x00, 0x00, 0x3c, 0x03, 0x00, 0x00, 
  0xc8, 0x02, 0x00, 0x00, 0x5c, 0x02, 0x00, 0x00, 0xec, 0x01, 0x00, 0x00, 
  0x7c, 0x01, 0x00, 0x00, 0x08, 0x01, 0x00, 0x00, 0x98, 0x00, 0x00, 0x00, 
  0x04, 0x00, 0x00, 0x00, 0x34, 0xe6, 0xff, 0xff, 0x1c, 0x00, 0x00, 0x00, 
  0x00, 0x00, 0x00, 0x01, 0x34, 0x00, 0x00, 0x00, 0x34, 0x00, 0x00, 0x00, 
  0x4c, 0x00, 0x00, 0x00, 0x00, 0x00, 0x00, 0x0e, 0x70, 0x00, 0x00, 0x00, 
  0x01, 0x00, 0x00, 0x00, 0x04, 0x00, 0x00, 0x00, 0x1a, 0xe6, 0xff, 0xff, 
  0x00, 0x00, 0x00, 0x01, 0x04, 0x00, 0x00, 0x00, 0x02, 0x00, 0x00, 0x00, 
  0x00, 0x00, 0x00, 0x00, 0x0f, 0x00, 0x00, 0x00, 0x88, 0xe0, 0xff, 0xff, 
  0x40, 0x00, 0x00, 0x00, 0x73, 0x65, 0x71, 0x75, 0x65, 0x6e, 0x74, 0x69, 
  0x61, 0x6c, 0x5f, 0x31, 0x5f, 0x31, 0x2f, 0x6c, 0x73, 0x74, 0x6d, 0x5f, 
  0x31, 0x2f, 0x77, 0x68, 0x69, 0x6c, 0x65, 0x2f, 0x54, 0x65, 0x6e, 0x73, 
  0x6f, 0x72, 0x41, 0x72, 0x72, 0x61, 0x79, 0x56, 0x32, 0x57, 0x72, 0x69, 
  0x74, 0x65, 0x2f, 0x54, 0x65, 0x6e, 0x73, 0x6f, 0x72, 0x4c, 0x69, 0x73, 
  0x74, 0x53, 0x65, 0x74, 0x49, 0x74, 0x65, 0x6d, 0x00, 0x00, 0x00, 0x00, 
  0x00, 0x00, 0x00, 0x00, 0xfa, 0xe1, 0xff, 0xff, 0x00, 0x00, 0x00, 0x01, 
  0x14, 0x00, 0x00, 0x00, 0x1c, 0x00, 0x00, 0x00, 0x1c, 0x00, 0x00, 0x00, 
  0x4b, 0x00, 0x00, 0x00, 0x48, 0x00, 0x00, 0x00, 0x02, 0x00, 0x00, 0x00, 
  0xff, 0xff, 0xff, 0xff, 0x0f, 0x00, 0x00, 0x00, 0x00, 0xe1, 0xff, 0xff, 
  0x2d, 0x00, 0x00, 0x00, 0x73, 0x65, 0x71, 0x75, 0x65, 0x6e, 0x74, 0x69, 
  0x61, 0x6c, 0x5f, 0x31, 0x5f, 0x31, 0x2f, 0x6c, 0x73, 0x74, 0x6d, 0x5f, 
  0x31, 0x2f, 0x77, 0x68, 0x69, 0x6c, 0x65, 0x2f, 0x6c, 0x73, 0x74, 0x6d, 
  0x5f, 0x63, 0x65, 0x6c, 0x6c, 0x5f, 0x31, 0x2f, 0x6d, 0x75, 0x6c, 0x5f, 
  0x32, 0x00, 0x00, 0x00, 0x02, 0x00, 0x00, 0x00, 0x01, 0x00, 0x00, 0x00, 
  0x0f, 0x00, 0x00, 0x00, 0x66, 0xe2, 0xff, 0xff, 0x00, 0x00, 0x00, 0x01, 
  0x14, 0x00, 0x00, 0x00, 0x1c, 0x00, 0x00, 0x00, 0x1c, 0x00, 0x00, 0x00, 
  0x4a, 0x00, 0x00, 0x00, 0x4c, 0x00, 0x00, 0x00, 0x02, 0x00, 0x00, 0x00, 
  0xff, 0xff, 0xff, 0xff, 0x0f, 0x00, 0x00, 0x00, 0x6c, 0xe1, 0xff, 0xff, 
  0x31, 0x00, 0x00, 0x00, 0x73, 0x65, 0x71, 0x75, 0x65, 0x6e, 0x74, 0x69, 
  0x61, 0x6c, 0x5f, 0x31, 0x5f, 0x31, 0x2f, 0x6c, 0x73, 0x74, 0x6d, 0x5f, 
  0x31, 0x2f, 0x77, 0x68, 0x69, 0x6c, 0x65, 0x2f, 0x6c, 0x73, 0x74, 0x6d, 
  0x5f, 0x63, 0x65, 0x6c, 0x6c, 0x5f, 0x31, 0x2f, 0x53, 0x69, 0x67, 0x6d, 
  0x6f, 0x69, 0x64, 0x5f, 0x32, 0x00, 0x00, 0x00, 0x02, 0x00, 0x00, 0x00, 
  0x01, 0x00, 0x00, 0x00, 0x0f, 0x00, 0x00, 0x00, 0xd6, 0xe2, 0xff, 0xff, 
  0x00, 0x00, 0x00, 0x01, 0x14, 0x00, 0x00, 0x00, 0x1c, 0x00, 0x00, 0x00, 
  0x1c, 0x00, 0x00, 0x00, 0x49, 0x00, 0x00, 0x00, 0x48, 0x00, 0x00, 0x00, 
  0x02, 0x00, 0x00, 0x00, 0xff, 0xff, 0xff, 0xff, 0x0f, 0x00, 0x00, 0x00, 
  0xdc, 0xe1, 0xff, 0xff, 0x2e, 0x00, 0x00, 0x00, 0x73, 0x65, 0x71, 0x75, 
  0x65, 0x6e, 0x74, 0x69, 0x61, 0x6c, 0x5f, 0x31, 0x5f, 0x31, 0x2f, 0x6c, 
  0x73, 0x74, 0x6d, 0x5f, 0x31, 0x2f, 0x77, 0x68, 0x69, 0x6c, 0x65, 0x2f, 
  0x6c, 0x73, 0x74, 0x6d, 0x5f, 0x63, 0x65, 0x6c, 0x6c, 0x5f, 0x31, 0x2f, 
  0x52, 0x65, 0x6c, 0x75, 0x5f, 0x31, 0x00, 0x00, 0x02, 0x00, 0x00, 0x00, 
  0x01, 0x00, 0x00, 0x00, 0x0f, 0x00, 0x00, 0x00, 0x42, 0xe3, 0xff, 0xff, 
  0x00, 0x00, 0x00, 0x01, 0x14, 0x00, 0x00, 0x00, 0x1c, 0x00, 0x00, 0x00, 
  0x1c, 0x00, 0x00, 0x00, 0x48, 0x00, 0x00, 0x00, 0x48, 0x00, 0x00, 0x00, 
  0x02, 0x00, 0x00, 0x00, 0xff, 0xff, 0xff, 0xff, 0x0f, 0x00, 0x00, 0x00, 
  0x48, 0xe2, 0xff, 0xff, 0x2d, 0x00, 0x00, 0x00, 0x73, 0x65, 0x71, 0x75, 
  0x65, 0x6e, 0x74, 0x69, 0x61, 0x6c, 0x5f, 0x31, 0x5f, 0x31, 0x2f, 0x6c, 
  0x73, 0x74, 0x6d, 0x5f, 0x31, 0x2f, 0x77, 0x68, 0x69, 0x6c, 0x65, 0x2f, 
  0x6c, 0x73, 0x74, 0x6d, 0x5f, 0x63, 0x65, 0x6c, 0x6c, 0x5f, 0x31, 0x2f, 
  0x61, 0x64, 0x64, 0x5f, 0x32, 0x00, 0x00, 0x00, 0x02, 0x00, 0x00, 0x00, 
  0x01, 0x00, 0x00, 0x00, 0x0f, 0x00, 0x00, 0x00, 0xae, 0xe3, 0xff, 0xff, 
  0x00, 0x00, 0x00, 0x01, 0x14, 0x00, 0x00, 0x00, 0x1c, 0x00, 0x00, 0x00, 
  0x1c, 0x00, 0x00, 0x00, 0x47, 0x00, 0x00, 0x00, 0x44, 0x00, 0x00, 0x00, 
  0x02, 0x00, 0x00, 0x00, 0xff, 0xff, 0xff, 0xff, 0x0f, 0x00, 0x00, 0x00, 
  0xb4, 0xe2, 0xff, 0xff, 0x2b, 0x00, 0x00, 0x00, 0x73, 0x65, 0x71, 0x75, 
  0x65, 0x6e, 0x74, 0x69, 0x61, 0x6c, 0x5f, 0x31, 0x5f, 0x31, 0x2f, 0x6c, 
  0x73, 0x74, 0x6d, 0x5f, 0x31, 0x2f, 0x77, 0x68, 0x69, 0x6c, 0x65, 0x2f, 
  0x6c, 0x73, 0x74, 0x6d, 0x5f, 0x63, 0x65, 0x6c, 0x6c, 0x5f, 0x31, 0x2f, 
  0x6d, 0x75, 0x6c, 0x00, 0x02, 0x00, 0x00, 0x00, 0x01, 0x00, 0x00, 0x00, 
  0x0f, 0x00, 0x00, 0x00, 0x16, 0xe4, 0xff, 0xff, 0x00, 0x00, 0x00, 0x01, 
  0x14, 0x00, 0x00, 0x00, 0x1c, 0x00, 0x00, 0x00, 0x1c, 0x00, 0x00, 0x00, 
  0x46, 0x00, 0x00, 0x00, 0x4c, 0x00, 0x00, 0x00, 0x02, 0x00, 0x00, 0x00, 
  0xff, 0xff, 0xff, 0xff, 0x0f, 0x00, 0x00, 0x00, 0x1c, 0xe3, 0xff, 0xff, 
  0x31, 0x00, 0x00, 0x00, 0x73, 0x65, 0x71, 0x75, 0x65, 0x6e, 0x74, 0x69, 
  0x61, 0x6c, 0x5f, 0x31, 0x5f, 0x31, 0x2f, 0x6c, 0x73, 0x74, 0x6d, 0x5f, 
  0x31, 0x2f, 0x77, 0x68, 0x69, 0x6c, 0x65, 0x2f, 0x6c, 0x73, 0x74, 0x6d, 
  0x5f, 0x63, 0x65, 0x6c, 0x6c, 0x5f, 0x31, 0x2f, 0x53, 0x69, 0x67, 0x6d, 
  0x6f, 0x69, 0x64, 0x5f, 0x31, 0x00, 0x00, 0x00, 0x02, 0x00, 0x00, 0x00, 
  0x01, 0x00, 0x00, 0x00, 0x0f, 0x00, 0x00, 0x00, 0x86, 0xe4, 0xff, 0xff, 
  0x00, 0x00, 0x00, 0x01, 0x14, 0x00, 0x00, 0x00, 0x1c, 0x00, 0x00, 0x00, 
  0x1c, 0x00, 0x00, 0x00, 0x45, 0x00, 0x00, 0x00, 0x48, 0x00, 0x00, 0x00, 
  0x02, 0x00, 0x00, 0x00, 0xff, 0xff, 0xff, 0xff, 0x0f, 0x00, 0x00, 0x00, 
  0x8c, 0xe3, 0xff, 0xff, 0x2d, 0x00, 0x00, 0x00, 0x73, 0x65, 0x71, 0x75, 
  0x65, 0x6e, 0x74, 0x69, 0x61, 0x6c, 0x5f, 0x31, 0x5f, 0x31, 0x2f, 0x6c, 
  0x73, 0x74, 0x6d, 0x5f, 0x31, 0x2f, 0x77, 0x68, 0x69, 0x6c, 0x65, 0x2f, 
  0x6c, 0x73, 0x74, 0x6d, 0x5f, 0x63, 0x65, 0x6c, 0x6c, 0x5f, 0x31, 0x2f, 
  0x6d, 0x75, 0x6c, 0x5f, 0x31, 0x00, 0x00, 0x00, 0x02, 0x00, 0x00, 0x00, 
  0x01, 0x00, 0x00, 0x00, 0x0f, 0x00, 0x00, 0x00, 0xf2, 0xe4, 0xff, 0xff, 
  0x00, 0x00, 0x00, 0x01, 0x14, 0x00, 0x00, 0x00, 0x1c, 0x00, 0x00, 0x00, 
  0x1c, 0x00, 0x00, 0x00, 0x44, 0x00, 0x00, 0x00, 0x48, 0x00, 0x00, 0x00, 
  0x02, 0x00, 0x00, 0x00, 0xff, 0xff, 0xff, 0xff, 0x0f, 0x00, 0x00, 0x00, 
  0xf8, 0xe3, 0xff, 0xff, 0x2f, 0x00, 0x00, 0x00, 0x73, 0x65, 0x71, 0x75, 
  0x65, 0x6e, 0x74, 0x69, 0x61, 0x6c, 0x5f, 0x31, 0x5f, 0x31, 0x2f, 0x6c, 
  0x73, 0x74, 0x6d, 0x5f, 0x31, 0x2f, 0x77, 0x68, 0x69, 0x6c, 0x65, 0x2f, 
  0x6c, 0x73, 0x74, 0x6d, 0x5f, 0x63, 0x65, 0x6c, 0x6c, 0x5f, 0x31, 0x2f, 
  0x53, 0x69, 0x67, 0x6d, 0x6f, 0x69, 0x64, 0x00, 0x02, 0x00, 0x00, 0x00, 
  0x01, 0x00, 0x00, 0x00, 0x0f, 0x00, 0x00, 0x00, 0x5e, 0xe5, 0xff, 0xff, 
  0x00, 0x00, 0x00, 0x01, 0x14, 0x00, 0x00, 0x00, 0x1c, 0x00, 0x00, 0x00, 
  0x1c, 0x00, 0x00, 0x00, 0x43, 0x00, 0x00, 0x00, 0x48, 0x00, 0x00, 0x00, 
  0x02, 0x00, 0x00, 0x00, 0xff, 0xff, 0xff, 0xff, 0x0f, 0x00, 0x00, 0x00, 
  0x64, 0xe4, 0xff, 0xff, 0x2c, 0x00, 0x00, 0x00, 0x73, 0x65, 0x71, 0x75, 
  0x65, 0x6e, 0x74, 0x69, 0x61, 0x6c, 0x5f, 0x31, 0x5f, 0x31, 0x2f, 0x6c, 
  0x73, 0x74, 0x6d, 0x5f, 0x31, 0x2f, 0x77, 0x68, 0x69, 0x6c, 0x65, 0x2f, 
  0x6c, 0x73, 0x74, 0x6d, 0x5f, 0x63, 0x65, 0x6c, 0x6c, 0x5f, 0x31, 0x2f, 
  0x52, 0x65, 0x6c, 0x75, 0x00, 0x00, 0x00, 0x00, 0x02, 0x00, 0x00, 0x00, 
  0x01, 0x00, 0x00, 0x00, 0x0f, 0x00, 0x00, 0x00, 0xca, 0xe5, 0xff, 0xff, 
  0x00, 0x00, 0x00, 0x01, 0x14, 0x00, 0x00, 0x00, 0x1c, 0x00, 0x00, 0x00, 
  0x1c, 0x00, 0x00, 0x00, 0x42, 0x00, 0x00, 0x00, 0x48, 0x00, 0x00, 0x00, 
  0x02, 0x00, 0x00, 0x00, 0xff, 0xff, 0xff, 0xff, 0x0f, 0x00, 0x00, 0x00, 
  0xd0, 0xe4, 0xff, 0xff, 0x2e, 0x00, 0x00, 0x00, 0x73, 0x65, 0x71, 0x75, 
  0x65, 0x6e, 0x74, 0x69, 0x61, 0x6c, 0x5f, 0x31, 0x5f, 0x31, 0x2f, 0x6c, 
  0x73, 0x74, 0x6d, 0x5f, 0x31, 0x2f, 0x77, 0x68, 0x69, 0x6c, 0x65, 0x2f, 
  0x6c, 0x73, 0x74, 0x6d, 0x5f, 0x63, 0x65, 0x6c, 0x6c, 0x5f, 0x31, 0x2f, 
  0x73, 0x70, 0x6c, 0x69, 0x74, 0x33, 0x00, 0x00, 0x02, 0x00, 0x00, 0x00, 
  0x01, 0x00, 0x00, 0x00, 0x0f, 0x00, 0x00, 0x00, 0x36, 0xe6, 0xff, 0xff, 
  0x00, 0x00, 0x00, 0x01, 0x14, 0x00, 0x00, 0x00, 0x1c, 0x00, 0x00, 0x00, 
  0x1c, 0x00, 0x00, 0x00, 0x41, 0x00, 0x00, 0x00, 0x48, 0x00, 0x00, 0x00, 
  0x02, 0x00, 0x00, 0x00, 0xff, 0xff, 0xff, 0xff, 0x0f, 0x00, 0x00, 0x00, 
  0x3c, 0xe5, 0xff, 0xff, 0x2e, 0x00, 0x00, 0x00, 0x73, 0x65, 0x71, 0x75, 
  0x65, 0x6e, 0x74, 0x69, 0x61, 0x6c, 0x5f, 0x31, 0x5f, 0x31, 0x2f, 0x6c, 
  0x73, 0x74, 0x6d, 0x5f, 0x31, 0x2f, 0x77, 0x68, 0x69, 0x6c, 0x65, 0x2f, 
  0x6c, 0x73, 0x74, 0x6d, 0x5f, 0x63, 0x65, 0x6c, 0x6c, 0x5f, 0x31, 0x2f, 
  0x73, 0x70, 0x6c, 0x69, 0x74, 0x32, 0x00, 0x00, 0x02, 0x00, 0x00, 0x00, 
  0x01, 0x00, 0x00, 0x00, 0x0f, 0x00, 0x00, 0x00, 0xa2, 0xe6, 0xff, 0xff, 
  0x00, 0x00, 0x00, 0x01, 0x14, 0x00, 0x00, 0x00, 0x1c, 0x00, 0x00, 0x00, 
  0x1c, 0x00, 0x00, 0x00, 0x40, 0x00, 0x00, 0x00, 0x48, 0x00, 0x00, 0x00, 
  0x02, 0x00, 0x00, 0x00, 0xff, 0xff, 0xff, 0xff, 0x0f, 0x00, 0x00, 0x00, 
  0xa8, 0xe5, 0xff, 0xff, 0x2e, 0x00, 0x00, 0x00, 0x73, 0x65, 0x71, 0x75, 
  0x65, 0x6e, 0x74, 0x69, 0x61, 0x6c, 0x5f, 0x31, 0x5f, 0x31, 0x2f, 0x6c, 
  0x73, 0x74, 0x6d, 0x5f, 0x31, 0x2f, 0x77, 0x68, 0x69, 0x6c, 0x65, 0x2f, 
  0x6c, 0x73, 0x74, 0x6d, 0x5f, 0x63, 0x65, 0x6c, 0x6c, 0x5f, 0x31, 0x2f, 
  0x73, 0x70, 0x6c, 0x69, 0x74, 0x31, 0x00, 0x00, 0x02, 0x00, 0x00, 0x00, 
  0x01, 0x00, 0x00, 0x00, 0x0f, 0x00, 0x00, 0x00, 0x0e, 0xe7, 0xff, 0xff, 
  0x00, 0x00, 0x00, 0x01, 0x14, 0x00, 0x00, 0x00, 0x1c, 0x00, 0x00, 0x00, 
  0x1c, 0x00, 0x00, 0x00, 0x3f, 0x00, 0x00, 0x00, 0x48, 0x00, 0x00, 0x00, 
  0x02, 0x00, 0x00, 0x00, 0xff, 0xff, 0xff, 0xff, 0x0f, 0x00, 0x00, 0x00, 
  0x14, 0xe6, 0xff, 0xff, 0x2d, 0x00, 0x00, 0x00, 0x73, 0x65, 0x71, 0x75, 
  0x65, 0x6e, 0x74, 0x69, 0x61, 0x6c, 0x5f, 0x31, 0x5f, 0x31, 0x2f, 0x6c, 
  0x73, 0x74, 0x6d, 0x5f, 0x31, 0x2f, 0x77, 0x68, 0x69, 0x6c, 0x65, 0x2f, 
  0x6c, 0x73, 0x74, 0x6d, 0x5f, 0x63, 0x65, 0x6c, 0x6c, 0x5f, 0x31, 0x2f, 
  0x73, 0x70, 0x6c, 0x69, 0x74, 0x00, 0x00, 0x00, 0x02, 0x00, 0x00, 0x00, 
  0x01, 0x00, 0x00, 0x00, 0x0f, 0x00, 0x00, 0x00, 0x7a, 0xe7, 0xff, 0xff, 
  0x00, 0x00, 0x00, 0x01, 0x14, 0x00, 0x00, 0x00, 0x1c, 0x00, 0x00, 0x00, 
  0x1c, 0x00, 0x00, 0x00, 0x3e, 0x00, 0x00, 0x00, 0x48, 0x00, 0x00, 0x00, 
  0x02, 0x00, 0x00, 0x00, 0xff, 0xff, 0xff, 0xff, 0x3c, 0x00, 0x00, 0x00, 
  0x80, 0xe6, 0xff, 0xff, 0x2d, 0x00, 0x00, 0x00, 0x73, 0x65, 0x71, 0x75, 
  0x65, 0x6e, 0x74, 0x69, 0x61, 0x6c, 0x5f, 0x31, 0x5f, 0x31, 0x2f, 0x6c, 
  0x73, 0x74, 0x6d, 0x5f, 0x31, 0x2f, 0x77, 0x68, 0x69, 0x6c, 0x65, 0x2f, 
  0x6c, 0x73, 0x74, 0x6d, 0x5f, 0x63, 0x65, 0x6c, 0x6c, 0x5f, 0x31, 0x2f, 
  0x61, 0x64, 0x64, 0x5f, 0x31, 0x00, 0x00, 0x00, 0x02, 0x00, 0x00, 0x00, 
  0x01, 0x00, 0x00, 0x00, 0x3c, 0x00, 0x00, 0x00, 0xe6, 0xe7, 0xff, 0xff, 
  0x00, 0x00, 0x00, 0x01, 0x14, 0x00, 0x00, 0x00, 0x1c, 0x00, 0x00, 0x00, 
  0x1c, 0x00, 0x00, 0x00, 0x3d, 0x00, 0x00, 0x00, 0x44, 0x00, 0x00, 0x00, 
  0x02, 0x00, 0x00, 0x00, 0xff, 0xff, 0xff, 0xff, 0x3c, 0x00, 0x00, 0x00, 
  0xec, 0xe6, 0xff, 0xff, 0x2b, 0x00, 0x00, 0x00, 0x73, 0x65, 0x71, 0x75, 
  0x65, 0x6e, 0x74, 0x69, 0x61, 0x6c, 0x5f, 0x31, 0x5f, 0x31, 0x2f, 0x6c, 
  0x73, 0x74, 0x6d, 0x5f, 0x31, 0x2f, 0x77, 0x68, 0x69, 0x6c, 0x65, 0x2f, 
  0x6c, 0x73, 0x74, 0x6d, 0x5f, 0x63, 0x65, 0x6c, 0x6c, 0x5f, 0x31, 0x2f, 
  0x61, 0x64, 0x64, 0x00, 0x02, 0x00, 0x00, 0x00, 0x01, 0x00, 0x00, 0x00, 
  0x3c, 0x00, 0x00, 0x00, 0x4e, 0xe8, 0xff, 0xff, 0x00, 0x00, 0x00, 0x01, 
  0x14, 0x00, 0x00, 0x00, 0x1c, 0x00, 0x00, 0x00, 0x1c, 0x00, 0x00, 0x00, 
  0x3c, 0x00, 0x00, 0x00, 0x48, 0x00, 0x00, 0x00, 0x02, 0x00, 0x00, 0x00, 
  0xff, 0xff, 0xff, 0xff, 0x3c, 0x00, 0x00, 0x00, 0x54, 0xe7, 0xff, 0xff, 
  0x2e, 0x00, 0x00, 0x00, 0x73, 0x65, 0x71, 0x75, 0x65, 0x6e, 0x74, 0x69, 
  0x61, 0x6c, 0x5f, 0x31, 0x5f, 0x31, 0x2f, 0x6c, 0x73, 0x74, 0x6d, 0x5f, 
  0x31, 0x2f, 0x77, 0x68, 0x69, 0x6c, 0x65, 0x2f, 0x6c, 0x73, 0x74, 0x6d, 
  0x5f, 0x63, 0x65, 0x6c, 0x6c, 0x5f, 0x31, 0x2f, 0x4d, 0x61, 0x74, 0x4d, 
  0x75, 0x6c, 0x00, 0x00, 0x02, 0x00, 0x00, 0x00, 0x01, 0x00, 0x00, 0x00, 
  0x3c, 0x00, 0x00, 0x00, 0xba, 0xe8, 0xff, 0xff, 0x00, 0x00, 0x00, 0x01, 
  0x14, 0x00, 0x00, 0x00, 0x1c, 0x00, 0x00, 0x00, 0x1c, 0x00, 0x00, 0x00, 
  0x3b, 0x00, 0x00, 0x00, 0x5c, 0x00, 0x00, 0x00, 0x02, 0x00, 0x00, 0x00, 
  0xff, 0xff, 0xff, 0xff, 0x03, 0x00, 0x00, 0x00, 0xc0, 0xe7, 0xff, 0xff, 
  0x40, 0x00, 0x00, 0x00, 0x73, 0x65, 0x71, 0x75, 0x65, 0x6e, 0x74, 0x69, 
  0x61, 0x6c, 0x5f, 0x31, 0x5f, 0x31, 0x2f, 0x6c, 0x73, 0x74, 0x6d, 0x5f, 
  0x31, 0x2f, 0x77, 0x68, 0x69, 0x6c, 0x65, 0x2f, 0x54, 0x65, 0x6e, 0x73, 
  0x6f, 0x72, 0x41, 0x72, 0x72, 0x61, 0x79, 0x56, 0x32, 0x52, 0x65, 0x61, 
  0x64, 0x2f, 0x54, 0x65, 0x6e, 0x73, 0x6f, 0x72, 0x4c, 0x69, 0x73, 0x74, 
  0x47, 0x65, 0x74, 0x49, 0x74, 0x65, 0x6d, 0x3b, 0x00, 0x00, 0x00, 0x00, 
  0x02, 0x00, 0x00, 0x00, 0x01, 0x00, 0x00, 0x00, 0x03, 0x00, 0x00, 0x00, 
  0x8e, 0xe9, 0xff, 0xff, 0x00, 0x00, 0x00, 0x01, 0x14, 0x00, 0x00, 0x00, 
  0x14, 0x00, 0x00, 0x00, 0x3a, 0x00, 0x00, 0x00, 0x00, 0x00, 0x00, 0x02, 
  0x30, 0x00, 0x00, 0x00, 0x34, 0xe8, 0xff, 0xff, 0x21, 0x00, 0x00, 0x00, 
  0x73, 0x65, 0x71, 0x75, 0x65, 0x6e, 0x74, 0x69, 0x61, 0x6c, 0x5f, 0x31, 
  0x5f, 0x31, 0x2f, 0x6c, 0x73, 0x74, 0x6d, 0x5f, 0x31, 0x2f, 0x77, 0x68, 
  0x69, 0x6c, 0x65, 0x2f, 0x61, 0x64, 0x64, 0x5f, 0x31, 0x00, 0x00, 0x00, 
  0x00, 0x00, 0x00, 0x00, 0x86, 0xe9, 0xff, 0xff, 0x00, 0x00, 0x00, 0x01, 
  0x14, 0x00, 0x00, 0x00, 0x1c, 0x00, 0x00, 0x00, 0x1c, 0x00, 0x00, 0x00, 
  0x39, 0x00, 0x00, 0x00, 0x4c, 0x00, 0x00, 0x00, 0x02, 0x00, 0x00, 0x00, 
  0xff, 0xff, 0xff, 0xff, 0x3c, 0x00, 0x00, 0x00, 0x8c, 0xe8, 0xff, 0xff, 
  0x30, 0x00, 0x00, 0x00, 0x73, 0x65, 0x71, 0x75, 0x65, 0x6e, 0x74, 0x69, 
  0x61, 0x6c, 0x5f, 0x31, 0x5f, 0x31, 0x2f, 0x6c, 0x73, 0x74, 0x6d, 0x5f, 
  0x31, 0x2f, 0x77, 0x68, 0x69, 0x6c, 0x65, 0x2f, 0x6c, 0x73, 0x74, 0x6d, 
  0x5f, 0x63, 0x65, 0x6c, 0x6c, 0x5f, 0x31, 0x2f, 0x4d, 0x61, 0x74, 0x4d, 
  0x75, 0x6c, 0x5f, 0x31, 0x00, 0x00, 0x00, 0x00, 0x02, 0x00, 0x00, 0x00, 
  0x01, 0x00, 0x00, 0x00, 0x3c, 0x00, 0x00, 0x00, 0x4a, 0xea, 0xff, 0xff, 
  0x00, 0x00, 0x00, 0x01, 0x14, 0x00, 0x00, 0x00, 0x14, 0x00, 0x00, 0x00, 
  0x38, 0x00, 0x00, 0x00, 0x00, 0x00, 0x00, 0x02, 0x2c, 0x00, 0x00, 0x00, 
  0xf0, 0xe8, 0xff, 0xff, 0x1f, 0x00, 0x00, 0x00, 0x73, 0x65, 0x71, 0x75, 
  0x65, 0x6e, 0x74, 0x69, 0x61, 0x6c, 0x5f, 0x31, 0x5f, 0x31, 0x2f, 0x6c, 
  0x73, 0x74, 0x6d, 0x5f, 0x31, 0x2f, 0x77, 0x68, 0x69, 0x6c, 0x65, 0x2f, 
  0x61, 0x64, 0x64, 0x00, 0x00, 0x00, 0x00, 0x00, 0x5e, 0xeb, 0xff, 0xff, 
  0x00, 0x00, 0x00, 0x01, 0x10, 0x00, 0x00, 0x00, 0x10, 0x00, 0x00, 0x00, 
  0x37, 0x00, 0x00, 0x00, 0x4c, 0x00, 0x00, 0x00, 0x34, 0xe9, 0xff, 0xff, 
  0x3c, 0x00, 0x00, 0x00, 0x73, 0x65, 0x71, 0x75, 0x65, 0x6e, 0x74, 0x69, 
  0x61, 0x6c, 0x5f, 0x31, 0x5f, 0x31, 0x2f, 0x6c, 0x73, 0x74, 0x6d, 0x5f, 
  0x31, 0x2f, 0x77, 0x68, 0x69, 0x6c, 0x65, 0x2f, 0x6c, 0x73, 0x74, 0x6d, 
  0x5f, 0x63, 0x65, 0x6c, 0x6c, 0x5f, 0x31, 0x2f, 0x61, 0x64, 0x64, 0x5f, 
  0x31, 0x2f, 0x52, 0x65, 0x61, 0x64, 0x56, 0x61, 0x72, 0x69, 0x61, 0x62, 
  0x6c, 0x65, 0x4f, 0x70, 0x00, 0x00, 0x00, 0x00, 0x01, 0x00, 0x00, 0x00, 
  0x3c, 0x00, 0x00, 0x00, 0xc6, 0xeb, 0xff, 0xff, 0x00, 0x00, 0x00, 0x01, 
  0x10, 0x00, 0x00, 0x00, 0x10, 0x00, 0x00, 0x00, 0x36, 0x00, 0x00, 0x00, 
  0x20, 0x00, 0x00, 0x00, 0x9c, 0xe9, 0xff, 0xff, 0x10, 0x00, 0x00, 0x00, 
  0x61, 0x72, 0x69, 0x74, 0x68, 0x2e, 0x63, 0x6f, 0x6e, 0x73, 0x74, 0x61, 
  0x6e, 0x74, 0x32, 0x30, 0x00, 0x00, 0x00, 0x00, 0x02, 0x00, 0x00, 0x00, 
  0x3c, 0x00, 0x00, 0x00, 0x0f, 0x00, 0x00, 0x00, 0x06, 0xec, 0xff, 0xff, 
  0x00, 0x00, 0x00, 0x01, 0x10, 0x00, 0x00, 0x00, 0x10, 0x00, 0x00, 0x00, 
  0x35, 0x00, 0x00, 0x00, 0x20, 0x00, 0x00, 0x00, 0xdc, 0xe9, 0xff, 0xff, 
  0x10, 0x00, 0x00, 0x00, 0x61, 0x72, 0x69, 0x74, 0x68, 0x2e, 0x63, 0x6f, 
  0x6e, 0x73, 0x74, 0x61, 0x6e, 0x74, 0x31, 0x39, 0x00, 0x00, 0x00, 0x00, 
  0x02, 0x00, 0x00, 0x00, 0x3c, 0x00, 0x00, 0x00, 0x03, 0x00, 0x00, 0x00, 
  0x7a, 0xeb, 0xff, 0xff, 0x00, 0x00, 0x00, 0x01, 0x14, 0x00, 0x00, 0x00, 
  0x14, 0x00, 0x00, 0x00, 0x0d, 0x00, 0x00, 0x00, 0x00, 0x00, 0x00, 0x02, 
  0x20, 0x00, 0x00, 0x00, 0x20, 0xea, 0xff, 0xff, 0x10, 0x00, 0x00, 0x00, 
  0x61, 0x72, 0x69, 0x74, 0x68, 0x2e, 0x63, 0x6f, 0x6e, 0x73, 0x74, 0x61, 
  0x6e, 0x74, 0x31, 0x38, 0x00, 0x00, 0x00, 0x00, 0x00, 0x00, 0x00, 0x00, 
  0xb6, 0xeb, 0xff, 0xff, 0x00, 0x00, 0x00, 0x01, 0x14, 0x00, 0x00, 0x00, 
  0x14, 0x00, 0x00, 0x00, 0x0b, 0x00, 0x00, 0x00, 0x00, 0x00, 0x00, 0x02, 
  0x20, 0x00, 0x00, 0x00, 0x5c, 0xea, 0xff, 0xff, 0x10, 0x00, 0x00, 0x00, 
  0x61, 0x72, 0x69, 0x74, 0x68, 0x2e, 0x63, 0x6f, 0x6e, 0x73, 0x74, 0x61, 
  0x6e, 0x74, 0x31, 0x37, 0x00, 0x00, 0x00, 0x00, 0x00, 0x00, 0x00, 0x00, 
  0x9e, 0xeb, 0xff, 0xff, 0x00, 0x00, 0x00, 0x01, 0x14, 0x00, 0x00, 0x00, 
  0x20, 0x00, 0x00, 0x00, 0x20, 0x00, 0x00, 0x00, 0x32, 0x00, 0x00, 0x00, 
  0x24, 0x00, 0x00, 0x00, 0x03, 0x00, 0x00, 0x00, 0x03, 0x00, 0x00, 0x00, 
  0xff, 0xff, 0xff, 0xff, 0x03, 0x00, 0x00, 0x00, 0xa8, 0xea, 0xff, 0xff, 
  0x04, 0x00, 0x00, 0x00, 0x61, 0x72, 0x67, 0x35, 0x00, 0x00, 0x00, 0x00, 
  0x03, 0x00, 0x00, 0x00, 0x03, 0x00, 0x00, 0x00, 0x01, 0x00, 0x00, 0x00, 
  0x03, 0x00, 0x00, 0x00, 0xea, 0xeb, 0xff, 0xff, 0x00, 0x00, 0x00, 0x01, 
  0x14, 0x00, 0x00, 0x00, 0x1c, 0x00, 0x00, 0x00, 0x1c, 0x00, 0x00, 0x00, 
  0x31, 0x00, 0x00, 0x00, 0x20, 0x00, 0x00, 0x00, 0x02, 0x00, 0x00, 0x00, 
  0xff, 0xff, 0xff, 0xff, 0x0f, 0x00, 0x00, 0x00, 0xf0, 0xea, 0xff, 0xff, 
  0x04, 0x00, 0x00, 0x00, 0x61, 0x72, 0x67, 0x34, 0x00, 0x00, 0x00, 0x00, 
  0x02, 0x00, 0x00, 0x00, 0x01, 0x00, 0x00, 0x00, 0x0f, 0x00, 0x00, 0x00, 
  0x2e, 0xec, 0xff, 0xff, 0x00, 0x00, 0x00, 0x01, 0x14, 0x00, 0x00, 0x00, 
  0x1c, 0x00, 0x00, 0x00, 0x1c, 0x00, 0x00, 0x00, 0x30, 0x00, 0x00, 0x00, 
  0x20, 0x00, 0x00, 0x00, 0x02, 0x00, 0x00, 0x00, 0xff, 0xff, 0xff, 0xff, 
  0x0f, 0x00, 0x00, 0x00, 0x34, 0xeb, 0xff, 0xff, 0x04, 0x00, 0x00, 0x00, 
  0x61, 0x72, 0x67, 0x33, 0x00, 0x00, 0x00, 0x00, 0x02, 0x00, 0x00, 0x00, 
  0x01, 0x00, 0x00, 0x00, 0x0f, 0x00, 0x00, 0x00, 0x3c, 0xf1, 0xff, 0xff, 
  0x1c, 0x00, 0x00, 0x00, 0x00, 0x00, 0x00, 0x01, 0x34, 0x00, 0x00, 0x00, 
  0x34, 0x00, 0x00, 0x00, 0x2f, 0x00, 0x00, 0x00, 0x00, 0x00, 0x00, 0x0e, 
  0x34, 0x00, 0x00, 0x00, 0x01, 0x00, 0x00, 0x00, 0x04, 0x00, 0x00, 0x00, 
  0x22, 0xf1, 0xff, 0xff, 0x00, 0x00, 0x00, 0x01, 0x04, 0x00, 0x00, 0x00, 
  0x02, 0x00, 0x00, 0x00, 0x00, 0x00, 0x00, 0x00, 0x0f, 0x00, 0x00, 0x00, 
  0x90, 0xeb, 0xff, 0xff, 0x04, 0x00, 0x00, 0x00, 0x61, 0x72, 0x67, 0x32, 
  0x00, 0x00, 0x00, 0x00, 0x00, 0x00, 0x00, 0x00, 0x1a, 0xed, 0xff, 0xff, 
  0x00, 0x00, 0x00, 0x01, 0x14, 0x00, 0x00, 0x00, 0x14, 0x00, 0x00, 0x00, 
  0x2e, 0x00, 0x00, 0x00, 0x00, 0x00, 0x00, 0x02, 0x14, 0x00, 0x00, 0x00, 
  0xc0, 0xeb, 0xff, 0xff, 0x04, 0x00, 0x00, 0x00, 0x61, 0x72, 0x67, 0x31, 
  0x00, 0x00, 0x00, 0x00, 0x00, 0x00, 0x00, 0x00, 0x4a, 0xed, 0xff, 0xff, 
  0x00, 0x00, 0x00, 0x01, 0x14, 0x00, 0x00, 0x00, 0x14, 0x00, 0x00, 0x00, 
  0x2d, 0x00, 0x00, 0x00, 0x00, 0x00, 0x00, 0x02, 0x14, 0x00, 0x00, 0x00, 
  0xf0, 0xeb, 0xff, 0xff, 0x04, 0x00, 0x00, 0x00, 0x61, 0x72, 0x67, 0x30, 
  0x00, 0x00, 0x00, 0x00, 0x00, 0x00, 0x00, 0x00, 0x46, 0xfc, 0xff, 0xff, 
  0x14, 0x00, 0x00, 0x00, 0x38, 0x00, 0x00, 0x00, 0xb0, 0x00, 0x00, 0x00, 
  0xb4, 0x00, 0x00, 0x00, 0xcc, 0x00, 0x00, 0x00, 0x20, 0x00, 0x00, 0x00, 
  0x73, 0x65, 0x71, 0x75, 0x65, 0x6e, 0x74, 0x69, 0x61, 0x6c, 0x5f, 0x31, 
  0x5f, 0x31, 0x2f, 0x6c, 0x73, 0x74, 0x6d, 0x5f, 0x31, 0x2f, 0x77, 0x68, 
  0x69, 0x6c, 0x65, 0x5f, 0x63, 0x6f, 0x6e, 0x64, 0x00, 0x00, 0x00, 0x00, 
  0x03, 0x00, 0x00, 0x00, 0x54, 0x00, 0x00, 0x00, 0x2c, 0x00, 0x00, 0x00, 
  0x04, 0x00, 0x00, 0x00, 0x02, 0xfa, 0xff, 0xff, 0x0c, 0x00, 0x00, 0x00, 
  0x10, 0x00, 0x00, 0x00, 0x0b, 0x00, 0x00, 0x00, 0x01, 0x00, 0x00, 0x00, 
  0x09, 0x00, 0x00, 0x00, 0x02, 0x00, 0x00, 0x00, 0x08, 0x00, 0x00, 0x00, 
  0x07, 0x00, 0x00, 0x00, 0x26, 0xfa, 0xff, 0xff, 0x0c, 0x00, 0x00, 0x00, 
  0x10, 0x00, 0x00, 0x00, 0x0a, 0x00, 0x00, 0x00, 0x01, 0x00, 0x00, 0x00, 
  0x08, 0x00, 0x00, 0x00, 0x02, 0x00, 0x00, 0x00, 0x00, 0x00, 0x00, 0x00, 
  0x06, 0x00, 0x00, 0x00, 0x4a, 0xfa, 0xff, 0xff, 0x0c, 0x00, 0x00, 0x00, 
  0x10, 0x00, 0x00, 0x00, 0x0a, 0x00, 0x00, 0x00, 0x01, 0x00, 0x00, 0x00, 
  0x07, 0x00, 0x00, 0x00, 0x02, 0x00, 0x00, 0x00, 0x01, 0x00, 0x00, 0x00, 
  0x06, 0x00, 0x00, 0x00, 0x01, 0x00, 0x00, 0x00, 0x09, 0x00, 0x00, 0x00, 
  0x06, 0x00, 0x00, 0x00, 0x00, 0x00, 0x00, 0x00, 0x01, 0x00, 0x00, 0x00, 
  0x02, 0x00, 0x00, 0x00, 0x03, 0x00, 0x00, 0x00, 0x04, 0x00, 0x00, 0x00, 
  0x05, 0x00, 0x00, 0x00, 0x0a, 0x00, 0x00, 0x00, 0xa4, 0x02, 0x00, 0x00, 
  0x70, 0x02, 0x00, 0x00, 0x18, 0x02, 0x00, 0x00, 0xd0, 0x01, 0x00, 0x00, 
  0x88, 0x01, 0x00, 0x00, 0x38, 0x01, 0x00, 0x00, 0xf8, 0x00, 0x00, 0x00, 
  0xa8, 0x00, 0x00, 0x00, 0x58, 0x00, 0x00, 0x00, 0x04, 0x00, 0x00, 0x00, 
  0x86, 0xee, 0xff, 0xff, 0x00, 0x00, 0x00, 0x01, 0x14, 0x00, 0x00, 0x00, 
  0x14, 0x00, 0x00, 0x00, 0x2c, 0x00, 0x00, 0x00, 0x00, 0x00, 0x00, 0x06, 
  0x34, 0x00, 0x00, 0x00, 0x2c, 0xed, 0xff, 0xff, 0x26, 0x00, 0x00, 0x00, 
  0x73, 0x65, 0x71, 0x75, 0x65, 0x6e, 0x74, 0x69, 0x61, 0x6c, 0x5f, 0x31, 
  0x5f, 0x31, 0x2f, 0x6c, 0x73, 0x74, 0x6d, 0x5f, 0x31, 0x2f, 0x77, 0x68, 
  0x69, 0x6c, 0x65, 0x2f, 0x4c, 0x6f, 0x67, 0x69, 0x63, 0x61, 0x6c, 0x41, 
  0x6e, 0x64, 0x00, 0x00, 0x00, 0x00, 0x00, 0x00, 0xd6, 0xee, 0xff, 0xff, 
  0x00, 0x00, 0x00, 0x01, 0x14, 0x00, 0x00, 0x00, 0x14, 0x00, 0x00, 0x00, 
  0x2b, 0x00, 0x00, 0x00, 0x00, 0x00, 0x00, 0x06, 0x30, 0x00, 0x00, 0x00, 
  0x7c, 0xed, 0xff, 0xff, 0x22, 0x00, 0x00, 0x00, 0x73, 0x65, 0x71, 0x75, 
  0x65, 0x6e, 0x74, 0x69, 0x61, 0x6c, 0x5f, 0x31, 0x5f, 0x31, 0x2f, 0x6c, 
  0x73, 0x74, 0x6d, 0x5f, 0x31, 0x2f, 0x77, 0x68, 0x69, 0x6c, 0x65, 0x2f, 
  0x4c, 0x65, 0x73, 0x73, 0x5f, 0x31, 0x00, 0x00, 0x00, 0x00, 0x00, 0x00, 
  0x22, 0xef, 0xff, 0xff, 0x00, 0x00, 0x00, 0x01, 0x14, 0x00, 0x00, 0x00, 
  0x14, 0x00, 0x00, 0x00, 0x2a, 0x00, 0x00, 0x00, 0x00, 0x00, 0x00, 0x06, 
  0x30, 0x00, 0x00, 0x00, 0xc8, 0xed, 0xff, 0xff, 0x20, 0x00, 0x00, 0x00, 
  0x73, 0x65, 0x71, 0x75, 0x65, 0x6e, 0x74, 0x69, 0x61, 0x6c, 0x5f, 0x31, 
  0x5f, 0x31, 0x2f, 0x6c, 0x73, 0x74, 0x6d, 0x5f, 0x31, 0x2f, 0x77, 0x68, 
  0x69, 0x6c, 0x65, 0x2f, 0x4c, 0x65, 0x73, 0x73, 0x00, 0x00, 0x00, 0x00, 
  0x00, 0x00, 0x00, 0x00, 0x6e, 0xef, 0xff, 0xff, 0x00, 0x00, 0x00, 0x01, 
  0x14, 0x00, 0x00, 0x00, 0x14, 0x00, 0x00, 0x00, 0x09, 0x00, 0x00, 0x00, 
  0x00, 0x00, 0x00, 0x02, 0x20, 0x00, 0x00, 0x00, 0x14, 0xee, 0xff, 0xff, 
  0x10, 0x00, 0x00, 0x00, 0x61, 0x72, 0x69, 0x74, 0x68, 0x2e, 0x63, 0x6f, 
  0x6e, 0x73, 0x74, 0x61, 0x6e, 0x74, 0x31, 0x36, 0x00, 0x00, 0x00, 0x00, 
  0x00, 0x00, 0x00, 0x00, 0x56, 0xef, 0xff, 0xff, 0x00, 0x00, 0x00, 0x01, 
  0x14, 0x00, 0x00, 0x00, 0x20, 0x00, 0x00, 0x00, 0x20, 0x00, 0x00, 0x00, 
  0x28, 0x00, 0x00, 0x00, 0x24, 0x00, 0x00, 0x00, 0x03, 0x00, 0x00, 0x00, 
  0x03, 0x00, 0x00, 0x00, 0xff, 0xff, 0xff, 0xff, 0x03, 0x00, 0x00, 0x00, 
  0x60, 0xee, 0xff, 0xff, 0x04, 0x00, 0x00, 0x00, 0x61, 0x72, 0x67, 0x35, 
  0x00, 0x00, 0x00, 0x00, 0x03, 0x00, 0x00, 0x00, 0x03, 0x00, 0x00, 0x00, 
  0x01, 0x00, 0x00, 0x00, 0x03, 0x00, 0x00, 0x00, 0xa2, 0xef, 0xff, 0xff, 
  0x00, 0x00, 0x00, 0x01, 0x14, 0x00, 0x00, 0x00, 0x1c, 0x00, 0x00, 0x00, 
  0x1c, 0x00, 0x00, 0x00, 0x27, 0x00, 0x00, 0x00, 0x20, 0x00, 0x00, 0x00, 
  0x02, 0x00, 0x00, 0x00, 0xff, 0xff, 0xff, 0xff, 0x0f, 0x00, 0x00, 0x00, 
  0xa8, 0xee, 0xff, 0xff, 0x04, 0x00, 0x00, 0x00, 0x61, 0x72, 0x67, 0x34, 
  0x00, 0x00, 0x00, 0x00, 0x02, 0x00, 0x00, 0x00, 0x01, 0x00, 0x00, 0x00, 
  0x0f, 0x00, 0x00, 0x00, 0xe6, 0xef, 0xff, 0xff, 0x00, 0x00, 0x00, 0x01, 
  0x14, 0x00, 0x00, 0x00, 0x1c, 0x00, 0x00, 0x00, 0x1c, 0x00, 0x00, 0x00, 
  0x26, 0x00, 0x00, 0x00, 0x20, 0x00, 0x00, 0x00, 0x02, 0x00, 0x00, 0x00, 
  0xff, 0xff, 0xff, 0xff, 0x0f, 0x00, 0x00, 0x00, 0xec, 0xee, 0xff, 0xff, 
  0x04, 0x00, 0x00, 0x00, 0x61, 0x72, 0x67, 0x33, 0x00, 0x00, 0x00, 0x00, 
  0x02, 0x00, 0x00, 0x00, 0x01, 0x00, 0x00, 0x00, 0x0f, 0x00, 0x00, 0x00, 
  0xf4, 0xf4, 0xff, 0xff, 0x1c, 0x00, 0x00, 0x00, 0x00, 0x00, 0x00, 0x01, 
  0x34, 0x00, 0x00, 0x00, 0x34, 0x00, 0x00, 0x00, 0x25, 0x00, 0x00, 0x00, 
  0x00, 0x00, 0x00, 0x0e, 0x34, 0x00, 0x00, 0x00, 0x01, 0x00, 0x00, 0x00, 
  0x04, 0x00, 0x00, 0x00, 0xda, 0xf4, 0xff, 0xff, 0x00, 0x00, 0x00, 0x01, 
  0x04, 0x00, 0x00, 0x00, 0x02, 0x00, 0x00, 0x00, 0x00, 0x00, 0x00, 0x00, 
  0x0f, 0x00, 0x00, 0x00, 0x48, 0xef, 0xff, 0xff, 0x04, 0x00, 0x00, 0x00, 
  0x61, 0x72, 0x67, 0x32, 0x00, 0x00, 0x00, 0x00, 0x00, 0x00, 0x00, 0x00, 
  0xd2, 0xf0, 0xff, 0xff, 0x00, 0x00, 0x00, 0x01, 0x14, 0x00, 0x00, 0x00, 
  0x14, 0x00, 0x00, 0x00, 0x24, 0x00, 0x00, 0x00, 0x00, 0x00, 0x00, 0x02, 
  0x14, 0x00, 0x00, 0x00, 0x78, 0xef, 0xff, 0xff, 0x04, 0x00, 0x00, 0x00, 
  0x61, 0x72, 0x67, 0x31, 0x00, 0x00, 0x00, 0x00, 0x00, 0x00, 0x00, 0x00, 
  0x02, 0xf1, 0xff, 0xff, 0x00, 0x00, 0x00, 0x01, 0x14, 0x00, 0x00, 0x00, 
  0x14, 0x00, 0x00, 0x00, 0x23, 0x00, 0x00, 0x00, 0x00, 0x00, 0x00, 0x02, 
  0x14, 0x00, 0x00, 0x00, 0xa8, 0xef, 0xff, 0xff, 0x04, 0x00, 0x00, 0x00, 
  0x61, 0x72, 0x67, 0x30, 0x00, 0x00, 0x00, 0x00, 0x00, 0x00, 0x00, 0x00, 
  0x00, 0x00, 0x0e, 0x00, 0x18, 0x00, 0x14, 0x00, 0x10, 0x00, 0x0c, 0x00, 
  0x08, 0x00, 0x04, 0x00, 0x0e, 0x00, 0x00, 0x00, 0x14, 0x00, 0x00, 0x00, 
  0x1c, 0x00, 0x00, 0x00, 0xe4, 0x03, 0x00, 0x00, 0xe8, 0x03, 0x00, 0x00, 
  0xec, 0x03, 0x00, 0x00, 0x04, 0x00, 0x00, 0x00, 0x6d, 0x61, 0x69, 0x6e, 
  0x00, 0x00, 0x00, 0x00, 0x0c, 0x00, 0x00, 0x00, 0x94, 0x03, 0x00, 0x00, 
  0xf4, 0x02, 0x00, 0x00, 0x94, 0x02, 0x00, 0x00, 0x5c, 0x02, 0x00, 0x00, 
  0x10, 0x02, 0x00, 0x00, 0xe8, 0x01, 0x00, 0x00, 0x80, 0x01, 0x00, 0x00, 
  0xf4, 0x00, 0x00, 0x00, 0x9c, 0x00, 0x00, 0x00, 0x60, 0x00, 0x00, 0x00, 
  0x28, 0x00, 0x00, 0x00, 0x04, 0x00, 0x00, 0x00, 0xd2, 0xfd, 0xff, 0xff, 
  0x0c, 0x00, 0x00, 0x00, 0x10, 0x00, 0x00, 0x00, 0x09, 0x00, 0x00, 0x00, 
  0x01, 0x00, 0x00, 0x00, 0x21, 0x00, 0x00, 0x00, 0x01, 0x00, 0x00, 0x00, 
  0x20, 0x00, 0x00, 0x00, 0xc2, 0xfd, 0xff, 0xff, 0x14, 0x00, 0x00, 0x00, 
  0x00, 0x00, 0x00, 0x08, 0x10, 0x00, 0x00, 0x00, 0x14, 0x00, 0x00, 0x00, 
  0x08, 0x00, 0x00, 0x00, 0x5c, 0xf0, 0xff, 0xff, 0x01, 0x00, 0x00, 0x00, 
  0x20, 0x00, 0x00, 0x00, 0x03, 0x00, 0x00, 0x00, 0x1f, 0x00, 0x00, 0x00, 
  0x04, 0x00, 0x00, 0x00, 0x06, 0x00, 0x00, 0x00, 0xf6, 0xfd, 0xff, 0xff, 
  0x14, 0x00, 0x00, 0x00, 0x00, 0x00, 0x00, 0x08, 0x14, 0x00, 0x00, 0x00, 
  0x18, 0x00, 0x00, 0x00, 0x08, 0x00, 0x00, 0x00, 0xf2, 0xfc, 0xff, 0xff, 
  0x00, 0x00, 0x00, 0x01, 0x01, 0x00, 0x00, 0x00, 0x1f, 0x00, 0x00, 0x00, 
  0x03, 0x00, 0x00, 0x00, 0x1e, 0x00, 0x00, 0x00, 0x05, 0x00, 0x00, 0x00, 
  0x07, 0x00, 0x00, 0x00, 0x2e, 0xfe, 0xff, 0xff, 0x24, 0x00, 0x00, 0x00, 
  0x00, 0x00, 0x00, 0x20, 0x2c, 0x00, 0x00, 0x00, 0x30, 0x00, 0x00, 0x00, 
  0x02, 0x00, 0x00, 0x00, 0x00, 0x00, 0x0e, 0x00, 0x10, 0x00, 0x0c, 0x00, 
  0x08, 0x00, 0x00, 0x00, 0x00, 0x00, 0x04, 0x00, 0x0e, 0x00, 0x00, 0x00, 
  0x01, 0x00, 0x00, 0x00, 0x06, 0x00, 0x00, 0x00, 0x06, 0x00, 0x00, 0x00, 
  0x01, 0x00, 0x00, 0x00, 0x1e, 0x00, 0x00, 0x00, 0x04, 0x00, 0x00, 0x00, 
  0x1d, 0x00, 0x00, 0x00, 0x03, 0x00, 0x00, 0x00, 0x02, 0x00, 0x00, 0x00, 
  0x01, 0x00, 0x00, 0x00, 0x28, 0xfe, 0xff, 0xff, 0x10, 0x00, 0x00, 0x00, 
  0x6c, 0x00, 0x00, 0x00, 0x70, 0x00, 0x00, 0x00, 0x07, 0x00, 0x00, 0x00, 
  0x5b, 0x00, 0x00, 0x00, 0x0f, 0x54, 0x65, 0x6e, 0x73, 0x6f, 0x72, 0x4c, 
  0x69, 0x73, 0x74, 0x53, 0x74, 0x61, 0x63, 0x6b, 0x00, 0x40, 0x12, 0x0f, 
  0x54, 0x65, 0x6e, 0x73, 0x6f, 0x72, 0x4c, 0x69, 0x73, 0x74, 0x53, 0x74, 
  0x61, 0x63, 0x6b, 0x1a, 0x00, 0x1a, 0x00, 0x2a, 0x12, 0x0a, 0x0c, 0x6e, 
  0x75, 0x6d, 0x5f, 0x65, 0x6c, 0x65, 0x6d, 0x65, 0x6e, 0x74, 0x73, 0x12, 
  0x02, 0x18, 0x01, 0x2a, 0x13, 0x0a, 0x0d, 0x65, 0x6c, 0x65, 0x6d, 0x65, 
  0x6e, 0x74, 0x5f, 0x64, 0x74, 0x79, 0x70, 0x65, 0x12, 0x02, 0x30, 0x01, 
  0x32, 0x00, 0x00, 0x02, 0x53, 0x43, 0x14, 0x14, 0x04, 0x28, 0x01, 0x00, 
  0x01, 0x00, 0x00, 0x00, 0x1d, 0x00, 0x00, 0x00, 0x02, 0x00, 0x00, 0x00, 
  0x19, 0x00, 0x00, 0x00, 0x0f, 0x00, 0x00, 0x00, 0x0a, 0xff, 0xff, 0xff, 
  0x1c, 0x00, 0x00, 0x00, 0x00, 0x00, 0x00, 0x5d, 0x20, 0x00, 0x00, 0x00, 
  0x38, 0x00, 0x00, 0x00, 0x06, 0x00, 0x00, 0x00, 0x08, 0x00, 0x0c, 0x00, 
  0x08, 0x00, 0x04, 0x00, 0x08, 0x00, 0x00, 0x00, 0x02, 0x00, 0x00, 0x00, 
  0x01, 0x00, 0x00, 0x00, 0x06, 0x00, 0x00, 0x00, 0x17, 0x00, 0x00, 0x00, 
  0x18, 0x00, 0x00, 0x00, 0x19, 0x00, 0x00, 0x00, 0x1a, 0x00, 0x00, 0x00, 
  0x1b, 0x00, 0x00, 0x00, 0x1c, 0x00, 0x00, 0x00, 0x06, 0x00, 0x00, 0x00, 
  0x10, 0x00, 0x00, 0x00, 0x10, 0x00, 0x00, 0x00, 0x12, 0x00, 0x00, 0x00, 
  0x16, 0x00, 0x00, 0x00, 0x16, 0x00, 0x00, 0x00, 0x14, 0x00, 0x00, 0x00, 
  0x9e, 0xff, 0xff, 0xff, 0x0c, 0x00, 0x00, 0x00, 0x10, 0x00, 0x00, 0x00, 
  0x05, 0x00, 0x00, 0x00, 0x01, 0x00, 0x00, 0x00, 0x16, 0x00, 0x00, 0x00, 
  0x02, 0x00, 0x00, 0x00, 0x15, 0x00, 0x00, 0x00, 0x0a, 0x00, 0x00, 0x00, 
  0x92, 0xff, 0xff, 0xff, 0x1c, 0x00, 0x00, 0x00, 0x00, 0x00, 0x00, 0x3b, 
  0x1c, 0x00, 0x00, 0x00, 0x20, 0x00, 0x00, 0x00, 0x04, 0x00, 0x00, 0x00, 
  0x00, 0x00, 0x06, 0x00, 0x08, 0x00, 0x04, 0x00, 0x06, 0x00, 0x00, 0x00, 
  0x02, 0x00, 0x00, 0x00, 0x01, 0x00, 0x00, 0x00, 0x15, 0x00, 0x00, 0x00, 
  0x02, 0x00, 0x00, 0x00, 0x13, 0x00, 0x00, 0x00, 0x09, 0x00, 0x00, 0x00, 
  0x00, 0x00, 0x0a, 0x00, 0x10, 0x00, 0x0c, 0x00, 0x08, 0x00, 0x04, 0x00, 
  0x0a, 0x00, 0x00, 0x00, 0x0c, 0x00, 0x00, 0x00, 0x10, 0x00, 0x00, 0x00, 
  0x03, 0x00, 0x00, 0x00, 0x01, 0x00, 0x00, 0x00, 0x14, 0x00, 0x00, 0x00, 
  0x02, 0x00, 0x00, 0x00, 0x00, 0x00, 0x00, 0x00, 0x0b, 0x00, 0x00, 0x00, 
  0x00, 0x00, 0x0e, 0x00, 0x1a, 0x00, 0x14, 0x00, 0x10, 0x00, 0x0c, 0x00, 
  0x0b, 0x00, 0x04, 0x00, 0x0e, 0x00, 0x00, 0x00, 0x24, 0x00, 0x00, 0x00, 
  0x00, 0x00, 0x00, 0x20, 0x24, 0x00, 0x00, 0x00, 0x28, 0x00, 0x00, 0x00, 
  0x02, 0x00, 0x00, 0x00, 0x00, 0x00, 0x0e, 0x00, 0x08, 0x00, 0x00, 0x00, 
  0x00, 0x00, 0x00, 0x00, 0x00, 0x00, 0x04, 0x00, 0x0e, 0x00, 0x00, 0x00, 
  0x01, 0x00, 0x00, 0x00, 0x01, 0x00, 0x00, 0x00, 0x13, 0x00, 0x00, 0x00, 
  0x04, 0x00, 0x00, 0x00, 0x11, 0x00, 0x00, 0x00, 0x0d, 0x00, 0x00, 0x00, 
  0x0c, 0x00, 0x00, 0x00, 0x0c, 0x00, 0x00, 0x00, 0x10, 0x00, 0x14, 0x00, 
  0x10, 0x00, 0x0c, 0x00, 0x08, 0x00, 0x00, 0x00, 0x00, 0x00, 0x04, 0x00, 
  0x10, 0x00, 0x00, 0x00, 0x10, 0x00, 0x00, 0x00, 0x70, 0x00, 0x00, 0x00, 
  0x74, 0x00, 0x00, 0x00, 0x01, 0x00, 0x00, 0x00, 0x5d, 0x00, 0x00, 0x00, 
  0x11, 0x54, 0x65, 0x6e, 0x73, 0x6f, 0x72, 0x4c, 0x69, 0x73, 0x74, 0x52, 
  0x65, 0x73, 0x65, 0x72, 0x76, 0x65, 0x00, 0x40, 0x12, 0x11, 0x54, 0x65, 
  0x6e, 0x73, 0x6f, 0x72, 0x4c, 0x69, 0x73, 0x74, 0x52, 0x65, 0x73, 0x65, 
  0x72, 0x76, 0x65, 0x1a, 0x00, 0x1a, 0x00, 0x2a, 0x10, 0x0a, 0x0a, 0x73, 
  0x68, 0x61, 0x70, 0x65, 0x5f, 0x74, 0x79, 0x70, 0x65, 0x12, 0x02, 0x30, 
  0x03, 0x2a, 0x13, 0x0a, 0x0d, 0x65, 0x6c, 0x65, 0x6d, 0x65, 0x6e, 0x74, 
  0x5f, 0x64, 0x74, 0x79, 0x70, 0x65, 0x12, 0x02, 0x30, 0x01, 0x32, 0x00, 
  0x00, 0x02, 0x55, 0x43, 0x14, 0x14, 0x04, 0x28, 0x01, 0x00, 0x00, 0x00, 
  0x01, 0x00, 0x00, 0x00, 0x12, 0x00, 0x00, 0x00, 0x02, 0x00, 0x00, 0x00, 
  0x0f, 0x00, 0x00, 0x00, 0x0e, 0x00, 0x00, 0x00, 0x00, 0x00, 0x0e, 0x00, 
  0x16, 0x00, 0x00, 0x00, 0x10, 0x00, 0x0c, 0x00, 0x0b, 0x00, 0x04, 0x00, 
  0x0e, 0x00, 0x00, 0x00, 0x18, 0x00, 0x00, 0x00, 0x00, 0x00, 0x00, 0x37, 
  0x18, 0x00, 0x00, 0x00, 0x1c, 0x00, 0x00, 0x00, 0x00, 0x00, 0x06, 0x00, 
  0x08, 0x00, 0x07, 0x00, 0x06, 0x00, 0x00, 0x00, 0x00, 0x00, 0x00, 0x02, 
  0x01, 0x00, 0x00, 0x00, 0x11, 0x00, 0x00, 0x00, 0x01, 0x00, 0x00, 0x00, 
  0x00, 0x00, 0x00, 0x00, 0x01, 0x00, 0x00, 0x00, 0x21, 0x00, 0x00, 0x00, 
  0x01, 0x00, 0x00, 0x00, 0x00, 0x00, 0x00, 0x00, 0x22, 0x00, 0x00, 0x00, 
  0x24, 0x0b, 0x00, 0x00, 0xcc, 0x0a, 0x00, 0x00, 0x74, 0x0a, 0x00, 0x00, 
  0x34, 0x0a, 0x00, 0x00, 0xf4, 0x09, 0x00, 0x00, 0x9c, 0x09, 0x00, 0x00, 
  0x60, 0x09, 0x00, 0x00, 0x24, 0x09, 0x00, 0x00, 0xe8, 0x08, 0x00, 0x00, 
  0xac, 0x08, 0x00, 0x00, 0x74, 0x08, 0x00, 0x00, 0x30, 0x08, 0x00, 0x00, 
  0xec, 0x07, 0x00, 0x00, 0xa8, 0x07, 0x00, 0x00, 0x68, 0x07, 0x00, 0x00, 
  0x24, 0x07, 0x00, 0x00, 0xe4, 0x06, 0x00, 0x00, 0x98, 0x06, 0x00, 0x00, 
  0x14, 0x06, 0x00, 0x00, 0xac, 0x05, 0x00, 0x00, 0x44, 0x05, 0x00, 0x00, 
  0xf0, 0x04, 0x00, 0x00, 0x94, 0x04, 0x00, 0x00, 0x4c, 0x04, 0x00, 0x00, 
  0x00, 0x04, 0x00, 0x00, 0x90, 0x03, 0x00, 0x00, 0x30, 0x03, 0x00, 0x00, 
  0xd0, 0x02, 0x00, 0x00, 0x68, 0x02, 0x00, 0x00, 0xe4, 0x01, 0x00, 0x00, 
  0x7c, 0x01, 0x00, 0x00, 0xe0, 0x00, 0x00, 0x00, 0x60, 0x00, 0x00, 0x00, 
  0x04, 0x00, 0x00, 0x00, 0x7a, 0xf5, 0xff, 0xff, 0x00, 0x00, 0x00, 0x01, 
  0x14, 0x00, 0x00, 0x00, 0x1c, 0x00, 0x00, 0x00, 0x1c, 0x00, 0x00, 0x00, 
  0x22, 0x00, 0x00, 0x00, 0x34, 0x00, 0x00, 0x00, 0x02, 0x00, 0x00, 0x00, 
  0xff, 0xff, 0xff, 0xff, 0x01, 0x00, 0x00, 0x00, 0x80, 0xf4, 0xff, 0xff, 
  0x1b, 0x00, 0x00, 0x00, 0x53, 0x74, 0x61, 0x74, 0x65, 0x66, 0x75, 0x6c, 
  0x50, 0x61, 0x72, 0x74, 0x69, 0x74, 0x69, 0x6f, 0x6e, 0x65, 0x64, 0x43, 
  0x61, 0x6c, 0x6c, 0x5f, 0x31, 0x3a, 0x30, 0x00, 0x02, 0x00, 0x00, 0x00, 
  0x01, 0x00, 0x00, 0x00, 0x01, 0x00, 0x00, 0x00, 0xd2, 0xf5, 0xff, 0xff, 
  0x00, 0x00, 0x00, 0x01, 0x14, 0x00, 0x00, 0x00, 0x1c, 0x00, 0x00, 0x00, 
  0x1c, 0x00, 0x00, 0x00, 0x21, 0x00, 0x00, 0x00, 0x58, 0x00, 0x00, 0x00, 
  0x02, 0x00, 0x00, 0x00, 0xff, 0xff, 0xff, 0xff, 0x01, 0x00, 0x00, 0x00, 
  0xd8, 0xf4, 0xff, 0xff, 0x3c, 0x00, 0x00, 0x00, 0x73, 0x65, 0x71, 0x75, 
  0x65, 0x6e, 0x74, 0x69, 0x61, 0x6c, 0x5f, 0x31, 0x5f, 0x31, 0x2f, 0x64, 
  0x65, 0x6e, 0x73, 0x65, 0x5f, 0x33, 0x5f, 0x31, 0x2f, 0x4d, 0x61, 0x74, 
  0x4d, 0x75, 0x6c, 0x3b, 0x73, 0x65, 0x71, 0x75, 0x65, 0x6e, 0x74, 0x69, 
  0x61, 0x6c, 0x5f, 0x31, 0x5f, 0x31, 0x2f, 0x64, 0x65, 0x6e, 0x73, 0x65, 
  0x5f, 0x33, 0x5f, 0x31, 0x2f, 0x41, 0x64, 0x64, 0x00, 0x00, 0x00, 0x00, 
  0x02, 0x00, 0x00, 0x00, 0x01, 0x00, 0x00, 0x00, 0x01, 0x00, 0x00, 0x00, 
  0x4e, 0xf6, 0xff, 0xff, 0x00, 0x00, 0x00, 0x01, 0x14, 0x00, 0x00, 0x00, 
  0x1c, 0x00, 0x00, 0x00, 0x1c, 0x00, 0x00, 0x00, 0x20, 0x00, 0x00, 0x00, 
  0x74, 0x00, 0x00, 0x00, 0x02, 0x00, 0x00, 0x00, 0xff, 0xff, 0xff, 0xff, 
  0x0f, 0x00, 0x00, 0x00, 0x54, 0xf5, 0xff, 0xff, 0x5a, 0x00, 0x00, 0x00, 
  0x73, 0x65, 0x71, 0x75, 0x65, 0x6e, 0x74, 0x69, 0x61, 0x6c, 0x5f, 0x31, 
  0x5f, 0x31, 0x2f, 0x64, 0x65, 0x6e, 0x73, 0x65, 0x5f, 0x32, 0x5f, 0x31, 
  0x2f, 0x4d, 0x61, 0x74, 0x4d, 0x75, 0x6c, 0x3b, 0x73, 0x65, 0x71, 0x75, 
  0x65, 0x6e, 0x74, 0x69, 0x61, 0x6c, 0x5f, 0x31, 0x5f, 0x31, 0x2f, 0x64, 
  0x65, 0x6e, 0x73, 0x65, 0x5f, 0x32, 0x5f, 0x31, 0x2f, 0x52, 0x65, 0x6c, 
  0x75, 0x3b, 0x73, 0x65, 0x71, 0x75, 0x65, 0x6e, 0x74, 0x69, 0x61, 0x6c, 
  0x5f, 0x31, 0x5f, 0x31, 0x2f, 0x64, 0x65, 0x6e, 0x73, 0x65, 0x5f, 0x32, 
  0x5f, 0x31, 0x2f, 0x41, 0x64, 0x64, 0x00, 0x00, 0x02, 0x00, 0x00, 0x00, 
  0x01, 0x00, 0x00, 0x00, 0x0f, 0x00, 0x00, 0x00, 0xe6, 0xf6, 0xff, 0xff, 
  0x00, 0x00, 0x00, 0x01, 0x14, 0x00, 0x00, 0x00, 0x1c, 0x00, 0x00, 0x00, 
  0x1c, 0x00, 0x00, 0x00, 0x1f, 0x00, 0x00, 0x00, 0x40, 0x00, 0x00, 0x00, 
  0x02, 0x00, 0x00, 0x00, 0xff, 0xff, 0xff, 0xff, 0x0f, 0x00, 0x00, 0x00, 
  0xec, 0xf5, 0xff, 0xff, 0x25, 0x00, 0x00, 0x00, 0x73, 0x65, 0x71, 0x75, 
  0x65, 0x6e, 0x74, 0x69, 0x61, 0x6c, 0x5f, 0x31, 0x5f, 0x31, 0x2f, 0x6c, 
  0x73, 0x74, 0x6d, 0x5f, 0x31, 0x2f, 0x73, 0x74, 0x72, 0x69, 0x64, 0x65, 
  0x64, 0x5f, 0x73, 0x6c, 0x69, 0x63, 0x65, 0x5f, 0x33, 0x00, 0x00, 0x00, 
  0x02, 0x00, 0x00, 0x00, 0x01, 0x00, 0x00, 0x00, 0x0f, 0x00, 0x00, 0x00, 
  0x4a, 0xf7, 0xff, 0xff, 0x00, 0x00, 0x00, 0x01, 0x14, 0x00, 0x00, 0x00, 
  0x20, 0x00, 0x00, 0x00, 0x20, 0x00, 0x00, 0x00, 0x1e, 0x00, 0x00, 0x00, 
  0x58, 0x00, 0x00, 0x00, 0x03, 0x00, 0x00, 0x00, 0x01, 0x00, 0x00, 0x00, 
  0xff, 0xff, 0xff, 0xff, 0x0f, 0x00, 0x00, 0x00, 0x54, 0xf6, 0xff, 0xff, 
  0x38, 0x00, 0x00, 0x00, 0x73, 0x65, 0x71, 0x75, 0x65, 0x6e, 0x74, 0x69, 
  0x61, 0x6c, 0x5f, 0x31, 0x5f, 0x31, 0x2f, 0x6c, 0x73, 0x74, 0x6d, 0x5f, 
  0x31, 0x2f, 0x54, 0x65, 0x6e, 0x73, 0x6f, 0x72, 0x41, 0x72, 0x72, 0x61, 
  0x79, 0x56, 0x32, 0x53, 0x74, 0x61, 0x63, 0x6b, 0x2f, 0x54, 0x65, 0x6e, 
  0x73, 0x6f, 0x72, 0x4c, 0x69, 0x73, 0x74, 0x53, 0x74, 0x61, 0x63, 0x6b, 
  0x00, 0x00, 0x00, 0x00, 0x03, 0x00, 0x00, 0x00, 0x01, 0x00, 0x00, 0x00, 
  0x01, 0x00, 0x00, 0x00, 0x0f, 0x00, 0x00, 0x00, 0xca, 0xf7, 0xff, 0xff, 
  0x00, 0x00, 0x00, 0x01, 0x14, 0x00, 0x00, 0x00, 0x20, 0x00, 0x00, 0x00, 
  0x20, 0x00, 0x00, 0x00, 0x1d, 0x00, 0x00, 0x00, 0x3c, 0x00, 0x00, 0x00, 
  0x03, 0x00, 0x00, 0x00, 0x03, 0x00, 0x00, 0x00, 0xff, 0xff, 0xff, 0xff, 
  0x03, 0x00, 0x00, 0x00, 0xd4, 0xf6, 0xff, 0xff, 0x1c, 0x00, 0x00, 0x00, 
  0x73, 0x65, 0x71, 0x75, 0x65, 0x6e, 0x74, 0x69, 0x61, 0x6c, 0x5f, 0x31, 
  0x5f, 0x31, 0x2f, 0x6c, 0x73, 0x74, 0x6d, 0x5f, 0x31, 0x2f, 0x77, 0x68, 
  0x69, 0x6c, 0x65, 0x35, 0x00, 0x00, 0x00, 0x00, 0x03, 0x00, 0x00, 0x00, 
  0x03, 0x00, 0x00, 0x00, 0x01, 0x00, 0x00, 0x00, 0x03, 0x00, 0x00, 0x00, 
  0x2e, 0xf8, 0xff, 0xff, 0x00, 0x00, 0x00, 0x01, 0x14, 0x00, 0x00, 0x00, 
  0x1c, 0x00, 0x00, 0x00, 0x1c, 0x00, 0x00, 0x00, 0x1c, 0x00, 0x00, 0x00, 
  0x38, 0x00, 0x00, 0x00, 0x02, 0x00, 0x00, 0x00, 0xff, 0xff, 0xff, 0xff, 
  0x0f, 0x00, 0x00, 0x00, 0x34, 0xf7, 0xff, 0xff, 0x1c, 0x00, 0x00, 0x00, 
  0x73, 0x65, 0x71, 0x75, 0x65, 0x6e, 0x74, 0x69, 0x61, 0x6c, 0x5f, 0x31, 
  0x5f, 0x31, 0x2f, 0x6c, 0x73, 0x74, 0x6d, 0x5f, 0x31, 0x2f, 0x77, 0x68, 
  0x69, 0x6c, 0x65, 0x34, 0x00, 0x00, 0x00, 0x00, 0x02, 0x00, 0x00, 0x00, 
  0x01, 0x00, 0x00, 0x00, 0x0f, 0x00, 0x00, 0x00, 0x8a, 0xf8, 0xff, 0xff, 
  0x00, 0x00, 0x00, 0x01, 0x14, 0x00, 0x00, 0x00, 0x1c, 0x00, 0x00, 0x00, 
  0x1c, 0x00, 0x00, 0x00, 0x1b, 0x00, 0x00, 0x00, 0x38, 0x00, 0x00, 0x00, 
  0x02, 0x00, 0x00, 0x00, 0xff, 0xff, 0xff, 0xff, 0x0f, 0x00, 0x00, 0x00, 
  0x90, 0xf7, 0xff, 0xff, 0x1c, 0x00, 0x00, 0x00, 0x73, 0x65, 0x71, 0x75, 
  0x65, 0x6e, 0x74, 0x69, 0x61, 0x6c, 0x5f, 0x31, 0x5f, 0x31, 0x2f, 0x6c, 
  0x73, 0x74, 0x6d, 0x5f, 0x31, 0x2f, 0x77, 0x68, 0x69, 0x6c, 0x65, 0x33, 
  0x00, 0x00, 0x00, 0x00, 0x02, 0x00, 0x00, 0x00, 0x01, 0x00, 0x00, 0x00, 
  0x0f, 0x00, 0x00, 0x00, 0xb0, 0xfd, 0xff, 0xff, 0x1c, 0x00, 0x00, 0x00, 
  0x00, 0x00, 0x00, 0x01, 0x34, 0x00, 0x00, 0x00, 0x34, 0x00, 0x00, 0x00, 
  0x1a, 0x00, 0x00, 0x00, 0x00, 0x00, 0x00, 0x0e, 0x4c, 0x00, 0x00, 0x00, 
  0x01, 0x00, 0x00, 0x00, 0x04, 0x00, 0x00, 0x00, 0x96, 0xfd, 0xff, 0xff, 
  0x00, 0x00, 0x00, 0x01, 0x04, 0x00, 0x00, 0x00, 0x02, 0x00, 0x00, 0x00, 
  0x00, 0x00, 0x00, 0x00, 0x0f, 0x00, 0x00, 0x00, 0x04, 0xf8, 0xff, 0xff, 
  0x1c, 0x00, 0x00, 0x00, 0x73, 0x65, 0x71, 0x75, 0x65, 0x6e, 0x74, 0x69, 
  0x61, 0x6c, 0x5f, 0x31, 0x5f, 0x31, 0x2f, 0x6c, 0x73, 0x74, 0x6d, 0x5f, 
  0x31, 0x2f, 0x77, 0x68, 0x69, 0x6c, 0x65, 0x32, 0x00, 0x00, 0x00, 0x00, 
  0x00, 0x00, 0x00, 0x00, 0xa6, 0xf9, 0xff, 0xff, 0x00, 0x00, 0x00, 0x01, 
  0x14, 0x00, 0x00, 0x00, 0x14, 0x00, 0x00, 0x00, 0x19, 0x00, 0x00, 0x00, 
  0x00, 0x00, 0x00, 0x02, 0x2c, 0x00, 0x00, 0x00, 0x4c, 0xf8, 0xff, 0xff, 
  0x1c, 0x00, 0x00, 0x00, 0x73, 0x65, 0x71, 0x75, 0x65, 0x6e, 0x74, 0x69, 
  0x61, 0x6c, 0x5f, 0x31, 0x5f, 0x31, 0x2f, 0x6c, 0x73, 0x74, 0x6d, 0x5f, 
  0x31, 0x2f, 0x77, 0x68, 0x69, 0x6c, 0x65, 0x31, 0x00, 0x00, 0x00, 0x00, 
  0x00, 0x00, 0x00, 0x00, 0xee, 0xf9, 0xff, 0xff, 0x00, 0x00, 0x00, 0x01, 
  0x14, 0x00, 0x00, 0x00, 0x14, 0x00, 0x00, 0x00, 0x18, 0x00, 0x00, 0x00, 
  0x00, 0x00, 0x00, 0x02, 0x28, 0x00, 0x00, 0x00, 0x94, 0xf8, 0xff, 0xff, 
  0x1b, 0x00, 0x00, 0x00, 0x73, 0x65, 0x71, 0x75, 0x65, 0x6e, 0x74, 0x69, 
  0x61, 0x6c, 0x5f, 0x31, 0x5f, 0x31, 0x2f, 0x6c, 0x73, 0x74, 0x6d, 0x5f, 
  0x31, 0x2f, 0x77, 0x68, 0x69, 0x6c, 0x65, 0x00, 0x00, 0x00, 0x00, 0x00, 
  0xde, 0xf9, 0xff, 0xff, 0x00, 0x00, 0x00, 0x01, 0x14, 0x00, 0x00, 0x00, 
  0x1c, 0x00, 0x00, 0x00, 0x1c, 0x00, 0x00, 0x00, 0x17, 0x00, 0x00, 0x00, 
  0x34, 0x00, 0x00, 0x00, 0x02, 0x00, 0x00, 0x00, 0xff, 0xff, 0xff, 0xff, 
  0x0f, 0x00, 0x00, 0x00, 0xe4, 0xf8, 0xff, 0xff, 0x1b, 0x00, 0x00, 0x00, 
  0x73, 0x65, 0x71, 0x75, 0x65, 0x6e, 0x74, 0x69, 0x61, 0x6c, 0x5f, 0x31, 
  0x5f, 0x31, 0x2f, 0x6c, 0x73, 0x74, 0x6d, 0x5f, 0x31, 0x2f, 0x7a, 0x65, 
  0x72, 0x6f, 0x73, 0x00, 0x02, 0x00, 0x00, 0x00, 0x01, 0x00, 0x00, 0x00, 
  0x0f, 0x00, 0x00, 0x00, 0x8a, 0xfa, 0xff, 0xff, 0x00, 0x00, 0x00, 0x01, 
  0x14, 0x00, 0x00, 0x00, 0x14, 0x00, 0x00, 0x00, 0x16, 0x00, 0x00, 0x00, 
  0x00, 0x00, 0x00, 0x02, 0x30, 0x00, 0x00, 0x00, 0x30, 0xf9, 0xff, 0xff, 
  0x22, 0x00, 0x00, 0x00, 0x73, 0x65, 0x71, 0x75, 0x65, 0x6e, 0x74, 0x69, 
  0x61, 0x6c, 0x5f, 0x31, 0x5f, 0x31, 0x2f, 0x6c, 0x73, 0x74, 0x6d, 0x5f, 
  0x31, 0x2f, 0x7a, 0x65, 0x72, 0x6f, 0x73, 0x2f, 0x70, 0x61, 0x63, 0x6b, 
  0x65, 0x64, 0x00, 0x00, 0x01, 0x00, 0x00, 0x00, 0x02, 0x00, 0x00, 0x00, 
  0x86, 0xfa, 0xff, 0xff, 0x00, 0x00, 0x00, 0x01, 0x14, 0x00, 0x00, 0x00, 
  0x20, 0x00, 0x00, 0x00, 0x20, 0x00, 0x00, 0x00, 0x15, 0x00, 0x00, 0x00, 
  0x3c, 0x00, 0x00, 0x00, 0x03, 0x00, 0x00, 0x00, 0x03, 0x00, 0x00, 0x00, 
  0xff, 0xff, 0xff, 0xff, 0x03, 0x00, 0x00, 0x00, 0x90, 0xf9, 0xff, 0xff, 
  0x1f, 0x00, 0x00, 0x00, 0x73, 0x65, 0x71, 0x75, 0x65, 0x6e, 0x74, 0x69, 
  0x61, 0x6c, 0x5f, 0x31, 0x5f, 0x31, 0x2f, 0x6c, 0x73, 0x74, 0x6d, 0x5f, 
  0x31, 0x2f, 0x74, 0x72, 0x61, 0x6e, 0x73, 0x70, 0x6f, 0x73, 0x65, 0x00, 
  0x03, 0x00, 0x00, 0x00, 0x03, 0x00, 0x00, 0x00, 0x01, 0x00, 0x00, 0x00, 
  0x03, 0x00, 0x00, 0x00, 0x3e, 0xfb, 0xff, 0xff, 0x00, 0x00, 0x00, 0x01, 
  0x14, 0x00, 0x00, 0x00, 0x14, 0x00, 0x00, 0x00, 0x14, 0x00, 0x00, 0x00, 
  0x00, 0x00, 0x00, 0x02, 0x30, 0x00, 0x00, 0x00, 0xe4, 0xf9, 0xff, 0xff, 
  0x23, 0x00, 0x00, 0x00, 0x73, 0x65, 0x71, 0x75, 0x65, 0x6e, 0x74, 0x69, 
  0x61, 0x6c, 0x5f, 0x31, 0x5f, 0x31, 0x2f, 0x6c, 0x73, 0x74, 0x6d, 0x5f, 
  0x31, 0x2f, 0x73, 0x74, 0x72, 0x69, 0x64, 0x65, 0x64, 0x5f, 0x73, 0x6c, 
  0x69, 0x63, 0x65, 0x00, 0x00, 0x00, 0x00, 0x00, 0x18, 0x00, 0x20, 0x00, 
  0x1c, 0x00, 0x1b, 0x00, 0x14, 0x00, 0x10, 0x00, 0x0c, 0x00, 0x00, 0x00, 
  0x00, 0x00, 0x00, 0x00, 0x0b, 0x00, 0x04, 0x00, 0x18, 0x00, 0x00, 0x00, 
  0x1c, 0x00, 0x00, 0x00, 0x00, 0x00, 0x00, 0x01, 0x40, 0x00, 0x00, 0x00, 
  0x40, 0x00, 0x00, 0x00, 0x13, 0x00, 0x00, 0x00, 0x00, 0x00, 0x00, 0x0e, 
  0x60, 0x00, 0x00, 0x00, 0x01, 0x00, 0x00, 0x00, 0x10, 0x00, 0x00, 0x00, 
  0x00, 0x00, 0x0a, 0x00, 0x0c, 0x00, 0x08, 0x00, 0x00, 0x00, 0x07, 0x00, 
  0x0a, 0x00, 0x00, 0x00, 0x00, 0x00, 0x00, 0x01, 0x04, 0x00, 0x00, 0x00, 
  0x02, 0x00, 0x00, 0x00, 0x00, 0x00, 0x00, 0x00, 0x0f, 0x00, 0x00, 0x00, 
  0x78, 0xfa, 0xff, 0xff, 0x25, 0x00, 0x00, 0x00, 0x73, 0x65, 0x71, 0x75, 
  0x65, 0x6e, 0x74, 0x69, 0x61, 0x6c, 0x5f, 0x31, 0x5f, 0x31, 0x2f, 0x6c, 
  0x73, 0x74, 0x6d, 0x5f, 0x31, 0x2f, 0x54, 0x65, 0x6e, 0x73, 0x6f, 0x72, 
  0x41, 0x72, 0x72, 0x61, 0x79, 0x56, 0x32, 0x5f, 0x31, 0x00, 0x00, 0x00, 
  0x00, 0x00, 0x00, 0x00, 0x22, 0xfc, 0xff, 0xff, 0x00, 0x00, 0x00, 0x01, 
  0x14, 0x00, 0x00, 0x00, 0x14, 0x00, 0x00, 0x00, 0x12, 0x00, 0x00, 0x00, 
  0x00, 0x00, 0x00, 0x02, 0x28, 0x00, 0x00, 0x00, 0xc8, 0xfa, 0xff, 0xff, 
  0x1b, 0x00, 0x00, 0x00, 0x73, 0x65, 0x71, 0x75, 0x65, 0x6e, 0x74, 0x69, 
  0x61, 0x6c, 0x5f, 0x31, 0x5f, 0x31, 0x2f, 0x6c, 0x73, 0x74, 0x6d, 0x5f, 
  0x31, 0x2f, 0x53, 0x68, 0x61, 0x70, 0x65, 0x00, 0x01, 0x00, 0x00, 0x00, 
  0x03, 0x00, 0x00, 0x00, 0x6a, 0xfc, 0xff, 0xff, 0x00, 0x00, 0x00, 0x01, 
  0x14, 0x00, 0x00, 0x00, 0x14, 0x00, 0x00, 0x00, 0x0b, 0x00, 0x00, 0x00, 
  0x00, 0x00, 0x00, 0x02, 0x20, 0x00, 0x00, 0x00, 0x10, 0xfb, 0xff, 0xff, 
  0x10, 0x00, 0x00, 0x00, 0x61, 0x72, 0x69, 0x74, 0x68, 0x2e, 0x63, 0x6f, 
  0x6e, 0x73, 0x74, 0x61, 0x6e, 0x74, 0x31, 0x35, 0x00, 0x00, 0x00, 0x00, 
  0x00, 0x00, 0x00, 0x00, 0xa6, 0xfc, 0xff, 0xff, 0x00, 0x00, 0x00, 0x01, 
  0x14, 0x00, 0x00, 0x00, 0x14, 0x00, 0x00, 0x00, 0x10, 0x00, 0x00, 0x00, 
  0x00, 0x00, 0x00, 0x02, 0x20, 0x00, 0x00, 0x00, 0x4c, 0xfb, 0xff, 0xff, 
  0x10, 0x00, 0x00, 0x00, 0x61, 0x72, 0x69, 0x74, 0x68, 0x2e, 0x63, 0x6f, 
  0x6e, 0x73, 0x74, 0x61, 0x6e, 0x74, 0x31, 0x34, 0x00, 0x00, 0x00, 0x00, 
  0x01, 0x00, 0x00, 0x00, 0x02, 0x00, 0x00, 0x00, 0xe6, 0xfc, 0xff, 0xff, 
  0x00, 0x00, 0x00, 0x01, 0x14, 0x00, 0x00, 0x00, 0x14, 0x00, 0x00, 0x00, 
  0x0d, 0x00, 0x00, 0x00, 0x00, 0x00, 0x00, 0x02, 0x20, 0x00, 0x00, 0x00, 
  0x8c, 0xfb, 0xff, 0xff, 0x10, 0x00, 0x00, 0x00, 0x61, 0x72, 0x69, 0x74, 
  0x68, 0x2e, 0x63, 0x6f, 0x6e, 0x73, 0x74, 0x61, 0x6e, 0x74, 0x31, 0x33, 
  0x00, 0x00, 0x00, 0x00, 0x00, 0x00, 0x00, 0x00, 0x22, 0xfd, 0xff, 0xff, 
  0x00, 0x00, 0x00, 0x01, 0x14, 0x00, 0x00, 0x00, 0x14, 0x00, 0x00, 0x00, 
  0x0b, 0x00, 0x00, 0x00, 0x00, 0x00, 0x00, 0x02, 0x20, 0x00, 0x00, 0x00, 
  0xc8, 0xfb, 0xff, 0xff, 0x10, 0x00, 0x00, 0x00, 0x61, 0x72, 0x69, 0x74, 
  0x68, 0x2e, 0x63, 0x6f, 0x6e, 0x73, 0x74, 0x61, 0x6e, 0x74, 0x31, 0x32, 
  0x00, 0x00, 0x00, 0x00, 0x01, 0x00, 0x00, 0x00, 0x01, 0x00, 0x00, 0x00, 
  0x62, 0xfd, 0xff, 0xff, 0x00, 0x00, 0x00, 0x01, 0x14, 0x00, 0x00, 0x00, 
  0x14, 0x00, 0x00, 0x00, 0x0d, 0x00, 0x00, 0x00, 0x00, 0x00, 0x00, 0x02, 
  0x20, 0x00, 0x00, 0x00, 0x08, 0xfc, 0xff, 0xff, 0x10, 0x00, 0x00, 0x00, 
  0x61, 0x72, 0x69, 0x74, 0x68, 0x2e, 0x63, 0x6f, 0x6e, 0x73, 0x74, 0x61, 
  0x6e, 0x74, 0x31, 0x31, 0x00, 0x00, 0x00, 0x00, 0x01, 0x00, 0x00, 0x00, 
  0x01, 0x00, 0x00, 0x00, 0xa2, 0xfd, 0xff, 0xff, 0x00, 0x00, 0x00, 0x01, 
  0x14, 0x00, 0x00, 0x00, 0x14, 0x00, 0x00, 0x00, 0x0c, 0x00, 0x00, 0x00, 
  0x00, 0x00, 0x00, 0x02, 0x20, 0x00, 0x00, 0x00, 0x48, 0xfc, 0xff, 0xff, 
  0x10, 0x00, 0x00, 0x00, 0x61, 0x72, 0x69, 0x74, 0x68, 0x2e, 0x63, 0x6f, 
  0x6e, 0x73, 0x74, 0x61, 0x6e, 0x74, 0x31, 0x30, 0x00, 0x00, 0x00, 0x00, 
  0x01, 0x00, 0x00, 0x00, 0x03, 0x00, 0x00, 0x00, 0xae, 0xfe, 0xff, 0xff, 
  0x00, 0x00, 0x00, 0x01, 0x10, 0x00, 0x00, 0x00, 0x10, 0x00, 0x00, 0x00, 
  0x0b, 0x00, 0x00, 0x00, 0x1c, 0x00, 0x00, 0x00, 0x84, 0xfc, 0xff, 0xff, 
  0x0f, 0x00, 0x00, 0x00, 0x61, 0x72, 0x69, 0x74, 0x68, 0x2e, 0x63, 0x6f, 
  0x6e, 0x73, 0x74, 0x61, 0x6e, 0x74, 0x39, 0x00, 0x00, 0x00, 0x00, 0x00, 
  0x16, 0xfe, 0xff, 0xff, 0x00, 0x00, 0x00, 0x01, 0x14, 0x00, 0x00, 0x00, 
  0x14, 0x00, 0x00, 0x00, 0x0a, 0x00, 0x00, 0x00, 0x00, 0x00, 0x00, 0x02, 
  0x1c, 0x00, 0x00, 0x00, 0xbc, 0xfc, 0xff, 0xff, 0x0f, 0x00, 0x00, 0x00, 
  0x61, 0x72, 0x69, 0x74, 0x68, 0x2e, 0x63, 0x6f, 0x6e, 0x73, 0x74, 0x61, 
  0x6e, 0x74, 0x38, 0x00, 0x00, 0x00, 0x00, 0x00, 0x4e, 0xfe, 0xff, 0xff, 
  0x00, 0x00, 0x00, 0x01, 0x14, 0x00, 0x00, 0x00, 0x14, 0x00, 0x00, 0x00, 
  0x09, 0x00, 0x00, 0x00, 0x00, 0x00, 0x00, 0x02, 0x1c, 0x00, 0x00, 0x00, 
  0xf4, 0xfc, 0xff, 0xff, 0x0f, 0x00, 0x00, 0x00, 0x61, 0x72, 0x69, 0x74, 
  0x68, 0x2e, 0x63, 0x6f, 0x6e, 0x73, 0x74, 0x61, 0x6e, 0x74, 0x37, 0x00, 
  0x00, 0x00, 0x00, 0x00, 0x52, 0xff, 0xff, 0xff, 0x00, 0x00, 0x00, 0x01, 
  0x10, 0x00, 0x00, 0x00, 0x10, 0x00, 0x00, 0x00, 0x08, 0x00, 0x00, 0x00, 
  0x1c, 0x00, 0x00, 0x00, 0x28, 0xfd, 0xff, 0xff, 0x0f, 0x00, 0x00, 0x00, 
  0x61, 0x72, 0x69, 0x74, 0x68, 0x2e, 0x63, 0x6f, 0x6e, 0x73, 0x74, 0x61, 
  0x6e, 0x74, 0x36, 0x00, 0x01, 0x00, 0x00, 0x00, 0x0f, 0x00, 0x00, 0x00, 
  0x8a, 0xff, 0xff, 0xff, 0x00, 0x00, 0x00, 0x01, 0x10, 0x00, 0x00, 0x00, 
  0x10, 0x00, 0x00, 0x00, 0x07, 0x00, 0x00, 0x00, 0x1c, 0x00, 0x00, 0x00, 
  0x60, 0xfd, 0xff, 0xff, 0x0f, 0x00, 0x00, 0x00, 0x61, 0x72, 0x69, 0x74, 
  0x68, 0x2e, 0x63, 0x6f, 0x6e, 0x73, 0x74, 0x61, 0x6e, 0x74, 0x35, 0x00, 
  0x01, 0x00, 0x00, 0x00, 0x01, 0x00, 0x00, 0x00, 0xc2, 0xff, 0xff, 0xff, 
  0x00, 0x00, 0x00, 0x01, 0x10, 0x00, 0x00, 0x00, 0x10, 0x00, 0x00, 0x00, 
  0x06, 0x00, 0x00, 0x00, 0x1c, 0x00, 0x00, 0x00, 0x98, 0xfd, 0xff, 0xff, 
  0x0f, 0x00, 0x00, 0x00, 0x61, 0x72, 0x69, 0x74, 0x68, 0x2e, 0x63, 0x6f, 
  0x6e, 0x73, 0x74, 0x61, 0x6e, 0x74, 0x34, 0x00, 0x02, 0x00, 0x00, 0x00, 
  0x0f, 0x00, 0x00, 0x00, 0x0f, 0x00, 0x00, 0x00, 0x00, 0x00, 0x16, 0x00, 
  0x18, 0x00, 0x14, 0x00, 0x00, 0x00, 0x10, 0x00, 0x0c, 0x00, 0x08, 0x00, 
  0x00, 0x00, 0x00, 0x00, 0x00, 0x00, 0x07, 0x00, 0x16, 0x00, 0x00, 0x00, 
  0x00, 0x00, 0x00, 0x01, 0x10, 0x00, 0x00, 0x00, 0x10, 0x00, 0x00, 0x00, 
  0x05, 0x00, 0x00, 0x00, 0x1c, 0x00, 0x00, 0x00, 0xec, 0xfd, 0xff, 0xff, 
  0x0f, 0x00, 0x00, 0x00, 0x61, 0x72, 0x69, 0x74, 0x68, 0x2e, 0x63, 0x6f, 
  0x6e, 0x73, 0x74, 0x61, 0x6e, 0x74, 0x33, 0x00, 0x02, 0x00, 0x00, 0x00, 
  0x01, 0x00, 0x00, 0x00, 0x0f, 0x00, 0x00, 0x00, 0x86, 0xff, 0xff, 0xff, 
  0x00, 0x00, 0x00, 0x01, 0x14, 0x00, 0x00, 0x00, 0x14, 0x00, 0x00, 0x00, 
  0x04, 0x00, 0x00, 0x00, 0x00, 0x00, 0x00, 0x02, 0x1c, 0x00, 0x00, 0x00, 
  0x2c, 0xfe, 0xff, 0xff, 0x0f, 0x00, 0x00, 0x00, 0x61, 0x72, 0x69, 0x74, 
  0x68, 0x2e, 0x63, 0x6f, 0x6e, 0x73, 0x74, 0x61, 0x6e, 0x74, 0x32, 0x00, 
  0x01, 0x00, 0x00, 0x00, 0x03, 0x00, 0x00, 0x00, 0xc2, 0xff, 0xff, 0xff, 
  0x00, 0x00, 0x00, 0x01, 0x14, 0x00, 0x00, 0x00, 0x14, 0x00, 0x00, 0x00, 
  0x03, 0x00, 0x00, 0x00, 0x00, 0x00, 0x00, 0x02, 0x1c, 0x00, 0x00, 0x00, 
  0x68, 0xfe, 0xff, 0xff, 0x0f, 0x00, 0x00, 0x00, 0x61, 0x72, 0x69, 0x74, 
  0x68, 0x2e, 0x63, 0x6f, 0x6e, 0x73, 0x74, 0x61, 0x6e, 0x74, 0x31, 0x00, 
  0x01, 0x00, 0x00, 0x00, 0x03, 0x00, 0x00, 0x00, 0x00, 0x00, 0x16, 0x00, 
  0x1c, 0x00, 0x18, 0x00, 0x17, 0x00, 0x10, 0x00, 0x0c, 0x00, 0x08, 0x00, 
  0x00, 0x00, 0x00, 0x00, 0x00, 0x00, 0x07, 0x00, 0x16, 0x00, 0x00, 0x00, 
